{
  "version": "1.0",
  "truncation": {
    "direction": "Right",
    "max_length": 512,
    "strategy": "LongestFirst",
    "stride": 0
  },
  "padding": {
    "strategy": "BatchLongest",
    "direction": "Right",
    "pad_to_multiple_of": null,
    "pad_id": 0,
    "pad_type_id": 0,
    "pad_token": "[PAD]"
  },
  "added_tokens": [
    {
      "id": 0,
      "content": "[PAD]",
      "single_word": false,
      "lstrip": false,
      "rstrip": false,
      "normalized": false,
      "special": true
    },
    {
      "id": 1,
      "content": "[UNK]",
      "single_word": false,
      "lstrip": false,
      "rstrip": false,
      "normalized": false,
      "special": true
    },
    {
      "id": 2,
      "content": "[CLS]",
      "single_word": false,
      "lstrip": false,
      "rstrip": false,
      "normalized": false,
      "special": true
    },
    {
      "id": 3,
      "content": "[SEP]",
      "single_word": false,
      "lstrip": false,
      "rstrip": false,
      "normalized": false,
      "special": true
    },
    {
      "id": 4,
      "content": "[MASK]",
      "single_word": false,
      "lstrip": false,
      "rstrip": false,
      "normalized": false,
      "special": true
    }
  ],
  "normalizer": {
    "type": "BertNormalizer",
    "clean_text": true,
    "handle_chinese_chars": true,
    "strip_accents": null,
    "lowercase": true
  },
  "pre_tokenizer": {
    "type": "BertPreTokenizer"
  },
  "post_processor": {
    "type": "TemplateProcessing",
    "single": [
      {
        "SpecialToken": {
          "id": "[CLS]",
          "type_id": 0
        }
      },
      {
        "Sequence": {
          "id": "A",
          "type_id": 0
        }
      },
      {
        "SpecialToken": {
          "id": "[SEP]",
          "type_id": 0
        }
      }
    ],
    "pair": [
      {
        "SpecialToken": {
          "id": "[CLS]",
          "type_id": 0
        }
      },
      {
        "Sequence": {
          "id": "A",
          "type_id": 0
        }
      },
      {
        "SpecialToken": {
          "id": "[SEP]",
          "type_id": 0
        }
      },
      {
        "Sequence": {
          "id": "B",
          "type_id": 1
        }
      },
      {
        "SpecialToken": {
          "id": "[SEP]",
          "type_id": 1
        }
      }
    ],
    "special_tokens": {
      "[CLS]": {
        "id": "[CLS]",
        "ids": [
          2
        ],
        "tokens": [
          "[CLS]"
        ]
      },
      "[SEP]": {
        "id": "[SEP]",
        "ids": [
          3
        ],
        "tokens": [
          "[SEP]"
        ]
      }
    }
  },
  "decoder": {
    "type": "WordPiece",
    "prefix": "##",
    "cleanup": true
  },
  "model": {
    "type": "WordPiece",
    "unk_token": "[UNK]",
    "continuing_subword_prefix": "##",
    "max_input_chars_per_word": 100,
    "vocab": {
      "[PAD]": 0,
      "[UNK]": 1,
      "[CLS]": 2,
      "[SEP]": 3,
      "[MASK]": 4,
      "!": 5,
      "\"": 6,
      "#": 7,
      "$": 8,
      "%": 9,
      "&": 10,
      "'": 11,
      "(": 12,
      ")": 13,
      "*": 14,
      "+": 15,
      ",": 16,
      "-": 17,
      ".": 18,
      "/": 19,
      "0": 20,
      "1": 21,
      "2": 22,
      "3": 23,
      "4": 24,
      "5": 25,
      "6": 26,
      "7": 27,
      "8": 28,
      "9": 29,
      ":": 30,
      ";": 31,
      "<": 32,
      "=": 33,
      ">": 34,
      "?": 35,
      "@": 36,
      "[": 37,
      "\\": 38,
      "]": 39,
      "^": 40,
      "_": 41,
      "`": 42,
      "a": 43,
      "b": 44,
      "c": 45,
      "d": 46,
      "e": 47,
      "f": 48,
      "g": 49,
      "h": 50,
      "i": 51,
      "j": 52,
      "k": 53,
      "l": 54,
      "m": 55,
      "n": 56,
      "o": 57,
      "p": 58,
      "q": 59,
      "r": 60,
      "s": 61,
      "t": 62,
      "u": 63,
      "v": 64,
      "w": 65,
      "x": 66,
      "y": 67,
      "z": 68,
      "{": 69,
      "|": 70,
      "}": 71,
      "~": 72,
      "¡": 73,
      "¢": 74,
      "£": 75,
      "¤": 76,
      "¥": 77,
      "¦": 78,
      "§": 79,
      "¨": 80,
      "©": 81,
      "ª": 82,
      "«": 83,
      "¬": 84,
      "®": 85,
      "¯": 86,
      "°": 87,
      "±": 88,
      "²": 89,
      "³": 90,
      "´": 91,
      "µ": 92,
      "¶": 93,
      "·": 94,
      "¸": 95,
      "¹": 96,
      "º": 97,
      "»": 98,
      "¼": 99,
      "½": 100,
      "¾": 101,
      "¿": 102,
      "×": 103,
      "ß": 104,
      "à": 105,
      "á": 106,
      "â": 107,
      "ã": 108,
      "ä": 109,
      "å": 110,
      "æ": 111,
      "ç": 112,
      "è": 113,
      "é": 114,
      "ê": 115,
      "ë": 116,
      "ì": 117,
      "í": 118,
      "î": 119,
      "ï": 120,
      "ð": 121,
      "ñ": 122,
      "ò": 123,
      "ó": 124,
      "ô": 125,
      "õ": 126,
      "ö": 127,
      "÷": 128,
      "ø": 129,
      "ù": 130,
      "ú": 131,
      "û": 132,
      "ü": 133,
      "ý": 134,
      "þ": 135,
      "ÿ": 136,
      "ā": 137,
      "ă": 138,
      "ą": 139,
      "ć": 140,
      "č": 141,
      "đ": 142,
      "ē": 143,
      "ė": 144,
      "ę": 145,
      "ě": 146,
      "ĝ": 147,
      "ğ": 148,
      "ġ": 149,
      "ģ": 150,
      "ī": 151,
      "ı": 152,
      "ķ": 153,
      "ł": 154,
      "ń": 155,
      "ň": 156,
      "ŋ": 157,
      "ō": 158,
      "ő": 159,
      "œ": 160,
      "ř": 161,
      "ś": 162,
      "ş": 163,
      "š": 164,
      "ţ": 165,
      "ū": 166,
      "ů": 167,
      "ű": 168,
      "ź": 169,
      "ż": 170,
      "ž": 171,
      "ƒ": 172,
      "ơ": 173,
      "ư": 174,
      "ǧ": 175,
      "ș": 176,
      "ț": 177,
      "ɑ": 178,
      "ə": 179,
      "ɩ": 180,
      "ɪ": 181,
      "ɾ": 182,
      "ʹ": 183,
      "ʼ": 184,
      "ʿ": 185,
      "ˆ": 186,
      "ˈ": 187,
      "˚": 188,
      "˜": 189,
      "ˮ": 190,
      "́": 191,
      "̂": 192,
      "̆": 193,
      "̇": 194,
      "̈": 195,
      "̌": 196,
      "̧": 197,
      "ͼ": 198,
      "ά": 199,
      "έ": 200,
      "ή": 201,
      "ί": 202,
      "α": 203,
      "β": 204,
      "γ": 205,
      "δ": 206,
      "ε": 207,
      "ζ": 208,
      "η": 209,
      "θ": 210,
      "ι": 211,
      "κ": 212,
      "λ": 213,
      "μ": 214,
      "ν": 215,
      "ξ": 216,
      "ο": 217,
      "π": 218,
      "ρ": 219,
      "ς": 220,
      "σ": 221,
      "τ": 222,
      "υ": 223,
      "φ": 224,
      "χ": 225,
      "ψ": 226,
      "ω": 227,
      "ό": 228,
      "ύ": 229,
      "ώ": 230,
      "а": 231,
      "б": 232,
      "в": 233,
      "г": 234,
      "д": 235,
      "е": 236,
      "ж": 237,
      "з": 238,
      "и": 239,
      "й": 240,
      "к": 241,
      "л": 242,
      "м": 243,
      "н": 244,
      "о": 245,
      "п": 246,
      "р": 247,
      "с": 248,
      "т": 249,
      "у": 250,
      "ф": 251,
      "х": 252,
      "ц": 253,
      "ч": 254,
      "ш": 255,
      "щ": 256,
      "ъ": 257,
      "ы": 258,
      "ь": 259,
      "э": 260,
      "ю": 261,
      "я": 262,
      "ё": 263,
      "є": 264,
      "ѕ": 265,
      "і": 266,
      "ї": 267,
      "ј": 268,
      "қ": 269,
      "ҫ": 270,
      "һ": 271,
      "ә": 272,
      "ԁ": 273,
      "ա": 274,
      "գ": 275,
      "դ": 276,
      "ե": 277,
      "ի": 278,
      "լ": 279,
      "կ": 280,
      "հ": 281,
      "մ": 282,
      "յ": 283,
      "ն": 284,
      "ո": 285,
      "ս": 286,
      "վ": 287,
      "տ": 288,
      "ր": 289,
      "ւ": 290,
      "א": 291,
      "ב": 292,
      "ג": 293,
      "ד": 294,
      "ה": 295,
      "ו": 296,
      "ז": 297,
      "ח": 298,
      "ט": 299,
      "י": 300,
      "כ": 301,
      "ל": 302,
      "ם": 303,
      "מ": 304,
      "ן": 305,
      "נ": 306,
      "ס": 307,
      "ע": 308,
      "פ": 309,
      "צ": 310,
      "ק": 311,
      "ר": 312,
      "ש": 313,
      "ת": 314,
      "،": 315,
      "ء": 316,
      "آ": 317,
      "أ": 318,
      "ؤ": 319,
      "إ": 320,
      "ئ": 321,
      "ا": 322,
      "ب": 323,
      "ة": 324,
      "ت": 325,
      "ث": 326,
      "ج": 327,
      "ح": 328,
      "خ": 329,
      "د": 330,
      "ذ": 331,
      "ر": 332,
      "ز": 333,
      "س": 334,
      "ش": 335,
      "ص": 336,
      "ض": 337,
      "ط": 338,
      "ظ": 339,
      "ع": 340,
      "غ": 341,
      "ـ": 342,
      "ف": 343,
      "ق": 344,
      "ك": 345,
      "ل": 346,
      "م": 347,
      "ن": 348,
      "ه": 349,
      "و": 350,
      "ى": 351,
      "ي": 352,
      "ً": 353,
      "ٌ": 354,
      "ٍ": 355,
      "َ": 356,
      "ُ": 357,
      "ِ": 358,
      "ّ": 359,
      "ْ": 360,
      "٫": 361,
      "ٰ": 362,
      "ٱ": 363,
      "پ": 364,
      "چ": 365,
      "ک": 366,
      "گ": 367,
      "ی": 368,
      "۪": 369,
      "ं": 370,
      "क": 371,
      "त": 372,
      "द": 373,
      "न": 374,
      "प": 375,
      "म": 376,
      "य": 377,
      "र": 378,
      "ल": 379,
      "व": 380,
      "स": 381,
      "ह": 382,
      "ा": 383,
      "ि": 384,
      "ी": 385,
      "े": 386,
      "ो": 387,
      "्": 388,
      "।": 389,
      "ক": 390,
      "জ": 391,
      "ত": 392,
      "দ": 393,
      "ন": 394,
      "প": 395,
      "ব": 396,
      "ম": 397,
      "য": 398,
      "র": 399,
      "ল": 400,
      "স": 401,
      "হ": 402,
      "া": 403,
      "ি": 404,
      "ু": 405,
      "ে": 406,
      "্": 407,
      "য়": 408,
      "க": 409,
      "த": 410,
      "ி": 411,
      "ு": 412,
      "்": 413,
      "్": 414,
      "ಿ": 415,
      "್": 416,
      "ക": 417,
      "ന": 418,
      "ി": 419,
      "്": 420,
      "ก": 421,
      "ข": 422,
      "ค": 423,
      "ง": 424,
      "จ": 425,
      "ช": 426,
      "ด": 427,
      "ต": 428,
      "ท": 429,
      "น": 430,
      "บ": 431,
      "ป": 432,
      "พ": 433,
      "ม": 434,
      "ย": 435,
      "ร": 436,
      "ล": 437,
      "ว": 438,
      "ส": 439,
      "ห": 440,
      "อ": 441,
      "ะ": 442,
      "ั": 443,
      "า": 444,
      "ิ": 445,
      "ี": 446,
      "ื": 447,
      "ุ": 448,
      "ู": 449,
      "เ": 450,
      "แ": 451,
      "โ": 452,
      "ไ": 453,
      "่": 454,
      "้": 455,
      "์": 456,
      "ა": 457,
      "ე": 458,
      "ი": 459,
      "ლ": 460,
      "მ": 461,
      "ნ": 462,
      "ო": 463,
      "რ": 464,
      "ს": 465,
      "ᴏ": 466,
      "ḥ": 467,
      "ḳ": 468,
      "ṣ": 469,
      "ạ": 470,
      "ả": 471,
      "ấ": 472,
      "ế": 473,
      "ệ": 474,
      "ố": 475,
      "ộ": 476,
      "ớ": 477,
      "‐": 478,
      "‑": 479,
      "‒": 480,
      "–": 481,
      "—": 482,
      "―": 483,
      "‘": 484,
      "’": 485,
      "‚": 486,
      "“": 487,
      "”": 488,
      "„": 489,
      "‟": 490,
      "‡": 491,
      "•": 492,
      "․": 493,
      "…": 494,
      "′": 495,
      "″": 496,
      "‹": 497,
      "›": 498,
      "€": 499,
      "₺": 500,
      "℃": 501,
      "№": 502,
      "™": 503,
      "←": 504,
      "↑": 505,
      "→": 506,
      "↓": 507,
      "−": 508,
      "∙": 509,
      "√": 510,
      "≤": 511,
      "≥": 512,
      "⋆": 513,
      "─": 514,
      "█": 515,
      "■": 516,
      "▪": 517,
      "▫": 518,
      "▬": 519,
      "▶": 520,
      "▸": 521,
      "►": 522,
      "▻": 523,
      "▼": 524,
      "●": 525,
      "★": 526,
      "☆": 527,
      "☎": 528,
      "☝": 529,
      "☺": 530,
      "♀": 531,
      "♡": 532,
      "♥": 533,
      "♦": 534,
      "♪": 535,
      "♫": 536,
      "✅": 537,
      "✌": 538,
      "✓": 539,
      "✔": 540,
      "✨": 541,
      "❑": 542,
      "❗": 543,
      "❣": 544,
      "❤": 545,
      "❥": 546,
      "➖": 547,
      "➡": 548,
      "➤": 549,
      "⠀": 550,
      "⭐": 551,
      "、": 552,
      "。": 553,
      "「": 554,
      "」": 555,
      "【": 556,
      "】": 557,
      "〰": 558,
      "あ": 559,
      "い": 560,
      "う": 561,
      "お": 562,
      "か": 563,
      "が": 564,
      "き": 565,
      "く": 566,
      "こ": 567,
      "さ": 568,
      "し": 569,
      "す": 570,
      "そ": 571,
      "た": 572,
      "ち": 573,
      "っ": 574,
      "て": 575,
      "で": 576,
      "と": 577,
      "な": 578,
      "に": 579,
      "の": 580,
      "は": 581,
      "ま": 582,
      "み": 583,
      "も": 584,
      "ら": 585,
      "り": 586,
      "る": 587,
      "れ": 588,
      "を": 589,
      "ん": 590,
      "ア": 591,
      "ィ": 592,
      "イ": 593,
      "ウ": 594,
      "ェ": 595,
      "エ": 596,
      "オ": 597,
      "カ": 598,
      "ガ": 599,
      "キ": 600,
      "ク": 601,
      "グ": 602,
      "コ": 603,
      "サ": 604,
      "シ": 605,
      "ジ": 606,
      "ス": 607,
      "ズ": 608,
      "タ": 609,
      "ダ": 610,
      "チ": 611,
      "ッ": 612,
      "テ": 613,
      "デ": 614,
      "ト": 615,
      "ド": 616,
      "ナ": 617,
      "ニ": 618,
      "バ": 619,
      "パ": 620,
      "ビ": 621,
      "フ": 622,
      "ブ": 623,
      "プ": 624,
      "マ": 625,
      "ミ": 626,
      "ム": 627,
      "メ": 628,
      "ャ": 629,
      "ュ": 630,
      "ョ": 631,
      "ラ": 632,
      "リ": 633,
      "ル": 634,
      "レ": 635,
      "ロ": 636,
      "ン": 637,
      "・": 638,
      "ー": 639,
      "ㅋ": 640,
      "一": 641,
      "万": 642,
      "三": 643,
      "上": 644,
      "下": 645,
      "不": 646,
      "世": 647,
      "业": 648,
      "东": 649,
      "个": 650,
      "中": 651,
      "为": 652,
      "主": 653,
      "么": 654,
      "之": 655,
      "乐": 656,
      "九": 657,
      "买": 658,
      "了": 659,
      "争": 660,
      "事": 661,
      "二": 662,
      "五": 663,
      "交": 664,
      "产": 665,
      "京": 666,
      "人": 667,
      "什": 668,
      "今": 669,
      "代": 670,
      "以": 671,
      "件": 672,
      "会": 673,
      "体": 674,
      "作": 675,
      "信": 676,
      "免": 677,
      "全": 678,
      "公": 679,
      "六": 680,
      "内": 681,
      "円": 682,
      "准": 683,
      "出": 684,
      "分": 685,
      "划": 686,
      "利": 687,
      "到": 688,
      "前": 689,
      "加": 690,
      "动": 691,
      "势": 692,
      "北": 693,
      "区": 694,
      "十": 695,
      "单": 696,
      "南": 697,
      "县": 698,
      "友": 699,
      "双": 700,
      "发": 701,
      "可": 702,
      "台": 703,
      "号": 704,
      "司": 705,
      "合": 706,
      "同": 707,
      "名": 708,
      "吗": 709,
      "和": 710,
      "品": 711,
      "哪": 712,
      "器": 713,
      "四": 714,
      "国": 715,
      "图": 716,
      "在": 717,
      "地": 718,
      "场": 719,
      "址": 720,
      "坛": 721,
      "城": 722,
      "多": 723,
      "大": 724,
      "天": 725,
      "奖": 726,
      "女": 727,
      "好": 728,
      "如": 729,
      "姐": 730,
      "娱": 731,
      "子": 732,
      "学": 733,
      "安": 734,
      "完": 735,
      "官": 736,
      "定": 737,
      "宝": 738,
      "客": 739,
      "家": 740,
      "小": 741,
      "少": 742,
      "山": 743,
      "川": 744,
      "州": 745,
      "工": 746,
      "巧": 747,
      "市": 748,
      "平": 749,
      "年": 750,
      "广": 751,
      "库": 752,
      "度": 753,
      "开": 754,
      "式": 755,
      "录": 756,
      "彩": 757,
      "影": 758,
      "律": 759,
      "微": 760,
      "心": 761,
      "快": 762,
      "怎": 763,
      "性": 764,
      "情": 765,
      "成": 766,
      "我": 767,
      "房": 768,
      "手": 769,
      "打": 770,
      "技": 771,
      "投": 772,
      "报": 773,
      "排": 774,
      "推": 775,
      "提": 776,
      "搐": 777,
      "播": 778,
      "数": 779,
      "文": 780,
      "料": 781,
      "新": 782,
      "方": 783,
      "日": 784,
      "时": 785,
      "是": 786,
      "最": 787,
      "月": 788,
      "有": 789,
      "期": 790,
      "本": 791,
      "机": 792,
      "来": 793,
      "枚": 794,
      "果": 795,
      "样": 796,
      "榜": 797,
      "正": 798,
      "民": 799,
      "水": 800,
      "江": 801,
      "法": 802,
      "注": 803,
      "海": 804,
      "港": 805,
      "游": 806,
      "澳": 807,
      "爱": 808,
      "片": 809,
      "版": 810,
      "牌": 811,
      "物": 812,
      "特": 813,
      "玄": 814,
      "王": 815,
      "玩": 816,
      "现": 817,
      "球": 818,
      "理": 819,
      "生": 820,
      "用": 821,
      "田": 822,
      "电": 823,
      "界": 824,
      "癟": 825,
      "白": 826,
      "百": 827,
      "的": 828,
      "直": 829,
      "眉": 830,
      "看": 831,
      "県": 832,
      "真": 833,
      "码": 834,
      "神": 835,
      "票": 836,
      "福": 837,
      "站": 838,
      "第": 839,
      "算": 840,
      "精": 841,
      "系": 842,
      "繹": 843,
      "红": 844,
      "线": 845,
      "经": 846,
      "结": 847,
      "网": 848,
      "美": 849,
      "群": 850,
      "羹": 851,
      "老": 852,
      "肖": 853,
      "能": 854,
      "自": 855,
      "色": 856,
      "花": 857,
      "莽": 858,
      "蓷": 859,
      "蓾": 860,
      "蔒": 861,
      "蔞": 862,
      "行": 863,
      "表": 864,
      "西": 865,
      "視": 866,
      "覺": 867,
      "规": 868,
      "视": 869,
      "解": 870,
      "计": 871,
      "记": 872,
      "论": 873,
      "说": 874,
      "请": 875,
      "谋": 876,
      "财": 877,
      "费": 878,
      "资": 879,
      "赛": 880,
      "赢": 881,
      "走": 882,
      "车": 883,
      "软": 884,
      "载": 885,
      "运": 886,
      "选": 887,
      "通": 888,
      "道": 889,
      "部": 890,
      "里": 891,
      "重": 892,
      "金": 893,
      "钱": 894,
      "门": 895,
      "集": 896,
      "霸": 897,
      "页": 898,
      "香": 899,
      "马": 900,
      "高": 901,
      "龙": 902,
      "가": 903,
      "고": 904,
      "기": 905,
      "는": 906,
      "다": 907,
      "로": 908,
      "쀀": 909,
      "사": 910,
      "서": 911,
      "스": 912,
      "시": 913,
      "에": 914,
      "을": 915,
      "의": 916,
      "이": 917,
      "인": 918,
      "지": 919,
      "하": 920,
      "한": 921,
      "ﬁ": 922,
      "ﬂ": 923,
      "﴾": 924,
      "﴿": 925,
      "️": 926,
      "！": 927,
      "（": 928,
      "）": 929,
      "，": 930,
      "：": 931,
      "🇷": 932,
      "🇹": 933,
      "🌟": 934,
      "🌷": 935,
      "🌸": 936,
      "🌹": 937,
      "🌺": 938,
      "🌼": 939,
      "🌿": 940,
      "🍀": 941,
      "🍁": 942,
      "🍂": 943,
      "🍃": 944,
      "🎀": 945,
      "🎁": 946,
      "🎈": 947,
      "🎉": 948,
      "🏻": 949,
      "🏼": 950,
      "👇": 951,
      "👈": 952,
      "👉": 953,
      "👌": 954,
      "👍": 955,
      "👏": 956,
      "💃": 957,
      "💎": 958,
      "💐": 959,
      "💕": 960,
      "💖": 961,
      "💗": 962,
      "💙": 963,
      "💚": 964,
      "💛": 965,
      "💜": 966,
      "💞": 967,
      "💥": 968,
      "💪": 969,
      "💫": 970,
      "💯": 971,
      "📌": 972,
      "📍": 973,
      "📞": 974,
      "📱": 975,
      "📲": 976,
      "🔥": 977,
      "🔴": 978,
      "🔸": 979,
      "🔹": 980,
      "😀": 981,
      "😁": 982,
      "😂": 983,
      "😃": 984,
      "😄": 985,
      "😅": 986,
      "😇": 987,
      "😉": 988,
      "😊": 989,
      "😋": 990,
      "😍": 991,
      "😎": 992,
      "😔": 993,
      "😘": 994,
      "😛": 995,
      "😢": 996,
      "🙁": 997,
      "🙂": 998,
      "🙈": 999,
      "🙋": 1000,
      "🙏": 1001,
      "🤔": 1002,
      "🤗": 1003,
      "🤣": 1004,
      "##y": 1005,
      "##c": 1006,
      "##a": 1007,
      "##o": 1008,
      "##n": 1009,
      "##i": 1010,
      "##e": 1011,
      "##u": 1012,
      "##k": 1013,
      "##ğ": 1014,
      "##z": 1015,
      "##b": 1016,
      "##s": 1017,
      "##r": 1018,
      "##l": 1019,
      "##d": 1020,
      "##g": 1021,
      "##ı": 1022,
      "##m": 1023,
      "##ü": 1024,
      "##t": 1025,
      "##ُ": 1026,
      "##ح": 1027,
      "##ِ": 1028,
      "##ب": 1029,
      "##ّ": 1030,
      "##ه": 1031,
      "##v": 1032,
      "##j": 1033,
      "##ä": 1034,
      "##h": 1035,
      "##p": 1036,
      "##ş": 1037,
      "##ç": 1038,
      "##奖": 1039,
      "##f": 1040,
      "##а": 1041,
      "##ģ": 1042,
      "##é": 1043,
      "##â": 1044,
      "##2": 1045,
      "##9": 1046,
      "##8": 1047,
      "##3": 1048,
      "##6": 1049,
      "##ы": 1050,
      "##б": 1051,
      "##и": 1052,
      "##н": 1053,
      "##с": 1054,
      "##к": 1055,
      "##î": 1056,
      "##1": 1057,
      "##5": 1058,
      "##0": 1059,
      "##р": 1060,
      "##м": 1061,
      "##о": 1062,
      "##г": 1063,
      "##̇": 1064,
      "##ö": 1065,
      "##我": 1066,
      "##怎": 1067,
      "##不": 1068,
      "##´": 1069,
      "##x": 1070,
      "##е": 1071,
      "##л": 1072,
      "##ь": 1073,
      "##у": 1074,
      "##ý": 1075,
      "##覺": 1076,
      "##в": 1077,
      "##ð": 1078,
      "##ș": 1079,
      "##þ": 1080,
      "##w": 1081,
      "##7": 1082,
      "##¬": 1083,
      "##4": 1084,
      "##ш": 1085,
      "##я": 1086,
      "##т": 1087,
      "##ン": 1088,
      "##キ": 1089,
      "##さ": 1090,
      "##ん": 1091,
      "##の": 1092,
      "##バ": 1093,
      "##ッ": 1094,
      "##ク": 1095,
      "##に": 1096,
      "##い": 1097,
      "##る": 1098,
      "##ニ": 1099,
      "##ち": 1100,
      "##்": 1101,
      "##й": 1102,
      "##¼": 1103,
      "##û": 1104,
      "##і": 1105,
      "##ю": 1106,
      "##щ": 1107,
      "##ã": 1108,
      "##í": 1109,
      "##å": 1110,
      "##ÿ": 1111,
      "##š": 1112,
      "##ī": 1113,
      "##发": 1114,
      "##快": 1115,
      "##三": 1116,
      "##有": 1117,
      "##玩": 1118,
      "##的": 1119,
      "##吗": 1120,
      "##്": 1121,
      "##ക": 1122,
      "##ന": 1123,
      "##α": 1124,
      "##ي": 1125,
      "##ع": 1126,
      "##ت": 1127,
      "##م": 1128,
      "##د": 1129,
      "##ラ": 1130,
      "##ム": 1131,
      "##式": 1132,
      "##ф": 1133,
      "##ц": 1134,
      "##定": 1135,
      "##合": 1136,
      "##同": 1137,
      "##规": 1138,
      "##理": 1139,
      "##度": 1140,
      "##±": 1141,
      "##ж": 1142,
      "##q": 1143,
      "##̆": 1144,
      "##ա": 1145,
      "##ր": 1146,
      "##ի": 1147,
      "##յ": 1148,
      "##ն": 1149,
      "##ň": 1150,
      "##ė": 1151,
      "##ा": 1152,
      "##र": 1153,
      "##े": 1154,
      "##游": 1155,
      "##看": 1156,
      "##台": 1157,
      "##机": 1158,
      "##解": 1159,
      "##料": 1160,
      "##高": 1161,
      "##手": 1162,
      "##网": 1163,
      "##站": 1164,
      "##ア": 1165,
      "##サ": 1166,
      "##リ": 1167,
      "##ー": 1168,
      "##ł": 1169,
      "##品": 1170,
      "##ο": 1171,
      "##λ": 1172,
      "##ι": 1173,
      "##κ": 1174,
      "##み": 1175,
      "##č": 1176,
      "##½": 1177,
      "##¯": 1178,
      "##°": 1179,
      "##ġ": 1180,
      "##ѕ": 1181,
      "##̧": 1182,
      "##😊": 1183,
      "##😍": 1184,
      "##₺": 1185,
      "##ê": 1186,
      "##п": 1187,
      "##ā": 1188,
      "##ʿ": 1189,
      "##ą": 1190,
      "##ে": 1191,
      "##জ": 1192,
      "##া": 1193,
      "##æ": 1194,
      "##ا": 1195,
      "##ل": 1196,
      "##أ": 1197,
      "##🙂": 1198,
      "##י": 1199,
      "##ל": 1200,
      "##ו": 1201,
      "##ס": 1202,
      "##פ": 1203,
      "##ת": 1204,
      "##з": 1205,
      "##年": 1206,
      "##月": 1207,
      "##日": 1208,
      "##א": 1209,
      "##ר": 1210,
      "##ד": 1211,
      "##ע": 1212,
      "##っ": 1213,
      "##た": 1214,
      "##で": 1215,
      "##す": 1216,
      "##心": 1217,
      "##分": 1218,
      "##彩": 1219,
      "##投": 1220,
      "##注": 1221,
      "##平": 1222,
      "##ú": 1223,
      "##■": 1224,
      "##⭐": 1225,
      "##️": 1226,
      "##神": 1227,
      "##争": 1228,
      "##霸": 1229,
      "##大": 1230,
      "##し": 1231,
      "##😉": 1232,
      "##™": 1233,
      "##س": 1234,
      "##🌺": 1235,
      "##ᴏ": 1236,
      "##ロ": 1237,
      "##カ": 1238,
      "##ô": 1239,
      "##ج": 1240,
      "##►": 1241,
      "##ظ": 1242,
      "##ی": 1243,
      "##ɑ": 1244,
      "##하": 1245,
      "##고": 1246,
      "##َ": 1247,
      "##ْ": 1248,
      "##غ": 1249,
      "##新": 1250,
      "##香": 1251,
      "##港": 1252,
      "##马": 1253,
      "##六": 1254,
      "##ش": 1255,
      "##ط": 1256,
      "##ئ": 1257,
      "##×": 1258,
      "##್": 1259,
      "##页": 1260,
      "##ス": 1261,
      "##デ": 1262,
      "##フ": 1263,
      "##ズ": 1264,
      "##á": 1265,
      "##ल": 1266,
      "##ो": 1267,
      "##न": 1268,
      "##ी": 1269,
      "##đ": 1270,
      "##و": 1271,
      "##ک": 1272,
      "##ن": 1273,
      "##ء": 1274,
      "##ó": 1275,
      "##ر": 1276,
      "##😂": 1277,
      "##ҫ": 1278,
      "##ṣ": 1279,
      "##😘": 1280,
      "##©": 1281,
      "##ž": 1282,
      "##ԁ": 1283,
      "##ك": 1284,
      "##ə": 1285,
      "##ξ": 1286,
      "##ρ": 1287,
      "##χ": 1288,
      "##ί": 1289,
      "##σ": 1290,
      "##江": 1291,
      "##д": 1292,
      "##è": 1293,
      "##ض": 1294,
      "##ˈ": 1295,
      "##ذ": 1296,
      "##ة": 1297,
      "##エ": 1298,
      "##イ": 1299,
      "##个": 1300,
      "##号": 1301,
      "##ø": 1302,
      "##ż": 1303,
      "##情": 1304,
      "##小": 1305,
      "##事": 1306,
      "##京": 1307,
      "##赛": 1308,
      "##车": 1309,
      "##中": 1310,
      "##下": 1311,
      "##载": 1312,
      "##õ": 1313,
      "##人": 1314,
      "##ï": 1315,
      "##以": 1316,
      "##上": 1317,
      "##ч": 1318,
      "##🏻": 1319,
      "##̈": 1320,
      "##ั": 1321,
      "##น": 1322,
      "##จ": 1323,
      "##ท": 1324,
      "##ร": 1325,
      "##์": 1326,
      "##ี": 1327,
      "##่": 1328,
      "##−": 1329,
      "##시": 1330,
      "##ص": 1331,
      "##²": 1332,
      "##¸": 1333,
      "##ё": 1334,
      "##э": 1335,
      "##х": 1336,
      "##ū": 1337,
      "##خ": 1338,
      "##な": 1339,
      "##性": 1340,
      "##を": 1341,
      "##表": 1342,
      "##ま": 1343,
      "##ʹ": 1344,
      "##🏼": 1345,
      "##ف": 1346,
      "##😀": 1347,
      "##ñ": 1348,
      "##ν": 1349,
      "##ﬂ": 1350,
      "##四": 1351,
      "##ე": 1352,
      "##რ": 1353,
      "##ლ": 1354,
      "##ი": 1355,
      "##ĝ": 1356,
      "##市": 1357,
      "##川": 1358,
      "##州": 1359,
      "##物": 1360,
      "##タ": 1361,
      "##ト": 1362,
      "##ό": 1363,
      "##π": 1364,
      "##β": 1365,
      "##τ": 1366,
      "##ς": 1367,
      "##ˆ": 1368,
      "##利": 1369,
      "##花": 1370,
      "##什": 1371,
      "##么": 1372,
      "##生": 1373,
      "##肖": 1374,
      "##ř": 1375,
      "##گ": 1376,
      "##€": 1377,
      "##ї": 1378,
      "##տ": 1379,
      "##ե": 1380,
      "##դ": 1381,
      "##蔒": 1382,
      "##ב": 1383,
      "##👉": 1384,
      "##ë": 1385,
      "##ブ": 1386,
      "##公": 1387,
      "##司": 1388,
      "##官": 1389,
      "##כ": 1390,
      "##נ": 1391,
      "##ث": 1392,
      "##是": 1393,
      "##美": 1394,
      "##国": 1395,
      "##学": 1396,
      "##会": 1397,
      "##加": 1398,
      "##澳": 1399,
      "##百": 1400,
      "##一": 1401,
      "##վ": 1402,
      "##田": 1403,
      "##ɾ": 1404,
      "##子": 1405,
      "##体": 1406,
      "##ò": 1407,
      "##☺": 1408,
      "##ń": 1409,
      "##ͼ": 1410,
      "##南": 1411,
      "##メ": 1412,
      "##η": 1413,
      "##ω": 1414,
      "##έ": 1415,
      "##❤": 1416,
      "##😇": 1417,
      "##🤗": 1418,
      "##آ": 1419,
      "##ٌ": 1420,
      "##÷": 1421,
      "##り": 1422,
      "##と": 1423,
      "##お": 1424,
      "##¤": 1425,
      "##家": 1426,
      "##˜": 1427,
      "##³": 1428,
      "##ª": 1429,
      "##👍": 1430,
      "##法": 1431,
      "##ě": 1432,
      "##👏": 1433,
      "##繹": 1434,
      "##羹": 1435,
      "##چ": 1436,
      "##海": 1437,
      "##姐": 1438,
      "##码": 1439,
      "##ह": 1440,
      "##✨": 1441,
      "##을": 1442,
      "##💕": 1443,
      "##ნ": 1444,
      "##ა": 1445,
      "##ს": 1446,
      "##て": 1447,
      "##ù": 1448,
      "##®": 1449,
      "##à": 1450,
      "##ى": 1451,
      "##ق": 1452,
      "##φ": 1453,
      "##ε": 1454,
      "##ύ": 1455,
      "##作": 1456,
      "##期": 1457,
      "##系": 1458,
      "##版": 1459,
      "##本": 1460,
      "##ً": 1461,
      "##¨": 1462,
      "##准": 1463,
      "##门": 1464,
      "##双": 1465,
      "##色": 1466,
      "##特": 1467,
      "##מ": 1468,
      "##ി": 1469,
      "##ķ": 1470,
      "##💎": 1471,
      "##ά": 1472,
      "##℃": 1473,
      "##天": 1474,
      "##ـ": 1475,
      "##行": 1476,
      "##影": 1477,
      "##υ": 1478,
      "##μ": 1479,
      "##γ": 1480,
      "##ή": 1481,
      "##ź": 1482,
      "##通": 1483,
      "##¦": 1484,
      "##名": 1485,
      "##开": 1486,
      "##θ": 1487,
      "##金": 1488,
      "##ę": 1489,
      "##ś": 1490,
      "##🙏": 1491,
      "##£": 1492,
      "##կ": 1493,
      "##ս": 1494,
      "##ć": 1495,
      "##க": 1496,
      "##ு": 1497,
      "##த": 1498,
      "##ி": 1499,
      "##了": 1500,
      "##方": 1501,
      "##经": 1502,
      "##报": 1503,
      "##图": 1504,
      "##全": 1505,
      "##ƒ": 1506,
      "##ル": 1507,
      "##ল": 1508,
      "##か": 1509,
      "##あ": 1510,
      "##万": 1511,
      "##円": 1512,
      "##ら": 1513,
      "##œ": 1514,
      "##现": 1515,
      "##ō": 1516,
      "##库": 1517,
      "##ʼ": 1518,
      "##白": 1519,
      "##玄": 1520,
      "##의": 1521,
      "##💙": 1522,
      "##自": 1523,
      "##票": 1524,
      "##真": 1525,
      "##提": 1526,
      "##💞": 1527,
      "##ß": 1528,
      "##シ": 1529,
      "##ュ": 1530,
      "##👌": 1531,
      "##ন": 1532,
      "##💖": 1533,
      "##ζ": 1534,
      "##前": 1535,
      "##き": 1536,
      "##爱": 1537,
      "##时": 1538,
      "##ɪ": 1539,
      "##结": 1540,
      "##果": 1541,
      "##场": 1542,
      "##ő": 1543,
      "##́": 1544,
      "##北": 1545,
      "##能": 1546,
      "##今": 1547,
      "##¢": 1548,
      "##が": 1549,
      "##く": 1550,
      "##播": 1551,
      "##器": 1552,
      "##东": 1553,
      "##在": 1554,
      "##哪": 1555,
      "##里": 1556,
      "##ì": 1557,
      "##ব": 1558,
      "##প": 1559,
      "##ু": 1560,
      "##র": 1561,
      "##ド": 1562,
      "##算": 1563,
      "##出": 1564,
      "##💚": 1565,
      "##娱": 1566,
      "##乐": 1567,
      "##水": 1568,
      "##♀": 1569,
      "##한": 1570,
      "##精": 1571,
      "##打": 1572,
      "##ო": 1573,
      "##º": 1574,
      "##正": 1575,
      "##บ": 1576,
      "##ม": 1577,
      "##ื": 1578,
      "##อ": 1579,
      "##ո": 1580,
      "##ח": 1581,
      "##ה": 1582,
      "##ز": 1583,
      "##最": 1584,
      "##女": 1585,
      "##ւ": 1586,
      "##れ": 1587,
      "##һ": 1588,
      "##δ": 1589,
      "##电": 1590,
      "##可": 1591,
      "##ψ": 1592,
      "##九": 1593,
      "##龙": 1594,
      "##址": 1595,
      "##ล": 1596,
      "##ก": 1597,
      "##า": 1598,
      "##ป": 1599,
      "##ิ": 1600,
      "##ต": 1601,
      "##ง": 1602,
      "##้": 1603,
      "##ุ": 1604,
      "##เ": 1605,
      "##ห": 1606,
      "##ช": 1607,
      "##ว": 1608,
      "##ส": 1609,
      "##十": 1610,
      "##二": 1611,
      "##赢": 1612,
      "##客": 1613,
      "##ウ": 1614,
      "##走": 1615,
      "##势": 1616,
      "##😄": 1617,
      "##ジ": 1618,
      "##王": 1619,
      "##牌": 1620,
      "##ं": 1621,
      "##व": 1622,
      "##广": 1623,
      "##त": 1624,
      "##ơ": 1625,
      "##ţ": 1626,
      "##癟": 1627,
      "##이": 1628,
      "##ъ": 1629,
      "##ű": 1630,
      "##ナ": 1631,
      "##オ": 1632,
      "##ダ": 1633,
      "##🇹": 1634,
      "##🇷": 1635,
      "##♫": 1636,
      "##ן": 1637,
      "##ˮ": 1638,
      "##🌟": 1639,
      "##기": 1640,
      "##는": 1641,
      "##👇": 1642,
      "##ィ": 1643,
      "##动": 1644,
      "##ů": 1645,
      "##数": 1646,
      "##文": 1647,
      "##件": 1648,
      "##区": 1649,
      "##ם": 1650,
      "##्": 1651,
      "##片": 1652,
      "##部": 1653,
      "##ק": 1654,
      "##ג": 1655,
      "##🙈": 1656,
      "##🌹": 1657,
      "##ি": 1658,
      "##্": 1659,
      "##ক": 1660,
      "##দ": 1661,
      "##单": 1662,
      "##로": 1663,
      "##ә": 1664,
      "##ǧ": 1665,
      "##テ": 1666,
      "##西": 1667,
      "##安": 1668,
      "##到": 1669,
      "##工": 1670,
      "##选": 1671,
      "##💐": 1672,
      "##🌸": 1673,
      "##ώ": 1674,
      "##マ": 1675,
      "##レ": 1676,
      "##ビ": 1677,
      "##交": 1678,
      "##µ": 1679,
      "##成": 1680,
      "##📌": 1681,
      "##̂": 1682,
      "##和": 1683,
      "##ﬁ": 1684,
      "##福": 1685,
      "##用": 1686,
      "##コ": 1687,
      "##إ": 1688,
      "##如": 1689,
      "##ٍ": 1690,
      "##プ": 1691,
      "##🔥": 1692,
      "##视": 1693,
      "##老": 1694,
      "##ะ": 1695,
      "##ย": 1696,
      "##พ": 1697,
      "##แ": 1698,
      "##ด": 1699,
      "##💛": 1700,
      "##♡": 1701,
      "##资": 1702,
      "##代": 1703,
      "##钱": 1704,
      "##も": 1705,
      "##🌿": 1706,
      "##♦": 1707,
      "##→": 1708,
      "##技": 1709,
      "##巧": 1710,
      "##软": 1711,
      "##ョ": 1712,
      "##스": 1713,
      "##서": 1714,
      "##😃": 1715,
      "##👈": 1716,
      "##♥": 1717,
      "##↑": 1718,
      "##パ": 1719,
      "##գ": 1720,
      "##լ": 1721,
      "##մ": 1722,
      "##论": 1723,
      "##坛": 1724,
      "##ש": 1725,
      "##ミ": 1726,
      "##谋": 1727,
      "##ă": 1728,
      "##ț": 1729,
      "##ि": 1730,
      "##क": 1731,
      "##直": 1732,
      "##说": 1733,
      "##こ": 1734,
      "##ャ": 1735,
      "##买": 1736,
      "##ט": 1737,
      "##에": 1738,
      "##グ": 1739,
      "##ŋ": 1740,
      "##内": 1741,
      "##¾": 1742,
      "##来": 1743,
      "##运": 1744,
      "##😋": 1745,
      "##信": 1746,
      "##推": 1747,
      "##请": 1748,
      "##द": 1749,
      "##प": 1750,
      "##ู": 1751,
      "##ค": 1752,
      "##স": 1753,
      "##🙋": 1754,
      "##지": 1755,
      "##인": 1756,
      "##ē": 1757,
      "##之": 1758,
      "##😁": 1759,
      "##☎": 1760,
      "##计": 1761,
      "##排": 1762,
      "##😅": 1763,
      "##❗": 1764,
      "##💯": 1765,
      "##ಿ": 1766,
      "##业": 1767,
      "##记": 1768,
      "##集": 1769,
      "##は": 1770,
      "##五": 1771,
      "##💫": 1772,
      "##ạ": 1773,
      "##य": 1774,
      "##😔": 1775,
      "##다": 1776,
      "##😎": 1777,
      "##հ": 1778,
      "##🌼": 1779,
      "##🍁": 1780,
      "##群": 1781,
      "##پ": 1782,
      "##世": 1783,
      "##界": 1784,
      "##第": 1785,
      "##费": 1786,
      "##ɩ": 1787,
      "##录": 1788,
      "##ḳ": 1789,
      "##צ": 1790,
      "##म": 1791,
      "##য়": 1792,
      "##重": 1793,
      "##ェ": 1794,
      "##ข": 1795,
      "##ไ": 1796,
      "##多": 1797,
      "##为": 1798,
      "##❣": 1799,
      "##划": 1800,
      "##✅": 1801,
      "##ガ": 1802,
      "##房": 1803,
      "##产": 1804,
      "##ז": 1805,
      "##う": 1806,
      "##є": 1807,
      "##स": 1808,
      "##宝": 1809,
      "##💪": 1810,
      "##球": 1811,
      "##完": 1812,
      "##好": 1813,
      "##ố": 1814,
      "##ؤ": 1815,
      "##免": 1816,
      "##사": 1817,
      "##۪": 1818,
      "##地": 1819,
      "##少": 1820,
      "##ٰ": 1821,
      "##ј": 1822,
      "##ả": 1823,
      "##チ": 1824,
      "##线": 1825,
      "##হ": 1826,
      "##ư": 1827,
      "##城": 1828,
      "##🍀": 1829,
      "##财": 1830,
      "##民": 1831,
      "##●": 1832,
      "##💜": 1833,
      "##县": 1834,
      "##მ": 1835,
      "##ộ": 1836,
      "##가": 1837,
      "##山": 1838,
      "##✔": 1839,
      "##โ": 1840,
      "##№": 1841,
      "##主": 1842,
      "##✌": 1843,
      "##≥": 1844,
      "##🎀": 1845,
      "##🍃": 1846,
      "##🍂": 1847,
      "##⠀": 1848,
      "##¹": 1849,
      "##😢": 1850,
      "##🤔": 1851,
      "##য": 1852,
      "##道": 1853,
      "##ম": 1854,
      "##ḥ": 1855,
      "##🎈": 1856,
      "##★": 1857,
      "##友": 1858,
      "##💥": 1859,
      "##≤": 1860,
      "##్": 1861,
      "##🎉": 1862,
      "##💃": 1863,
      "##¥": 1864,
      "##微": 1865,
      "##ٱ": 1866,
      "##律": 1867,
      "##红": 1868,
      "##🎁": 1869,
      "##💗": 1870,
      "##ত": 1871,
      "##̌": 1872,
      "##қ": 1873,
      "##✓": 1874,
      "##そ": 1875,
      "##♪": 1876,
      "##∙": 1877,
      "##枚": 1878,
      "##˚": 1879,
      "##√": 1880,
      "##➡": 1881,
      "##🌷": 1882,
      "##📞": 1883,
      "##☆": 1884,
      "##視": 1885,
      "##莽": 1886,
      "##眉": 1887,
      "##样": 1888,
      "##←": 1889,
      "##▫": 1890,
      "##ế": 1891,
      "##☝": 1892,
      "##↓": 1893,
      "##榜": 1894,
      "##▪": 1895,
      "##─": 1896,
      "##█": 1897,
      "##ấ": 1898,
      "##🤣": 1899,
      "##📲": 1900,
      "##📱": 1901,
      "##ớ": 1902,
      "##❥": 1903,
      "##ệ": 1904,
      "##ㅋ": 1905,
      "##🔸": 1906,
      "##県": 1907,
      "##😛": 1908,
      "##▻": 1909,
      "##📍": 1910,
      "##🔴": 1911,
      "##▼": 1912,
      "##🙁": 1913,
      "##➤": 1914,
      "##▬": 1915,
      "##➖": 1916,
      "##🔹": 1917,
      "##▶": 1918,
      "##蓾": 1919,
      "##⋆": 1920,
      "##쀀": 1921,
      "##蔞": 1922,
      "##蓷": 1923,
      "##▸": 1924,
      "##la": 1925,
      "##er": 1926,
      "##in": 1927,
      "##an": 1928,
      "##en": 1929,
      "##ın": 1930,
      "##ir": 1931,
      "##ar": 1932,
      "##il": 1933,
      "##lar": 1934,
      "##ma": 1935,
      "##ek": 1936,
      "##el": 1937,
      "##ak": 1938,
      "##le": 1939,
      "##da": 1940,
      "##un": 1941,
      "##de": 1942,
      "##or": 1943,
      "##ler": 1944,
      "##lı": 1945,
      "ve": 1946,
      "bir": 1947,
      "##iy": 1948,
      "##et": 1949,
      "##im": 1950,
      "##es": 1951,
      "##iz": 1952,
      "##on": 1953,
      "##ik": 1954,
      "ka": 1955,
      "ya": 1956,
      "##ur": 1957,
      "##ır": 1958,
      "##lan": 1959,
      "##at": 1960,
      "de": 1961,
      "##ün": 1962,
      "##as": 1963,
      "bu": 1964,
      "##ay": 1965,
      "##em": 1966,
      "##is": 1967,
      "ol": 1968,
      "##al": 1969,
      "##ür": 1970,
      "##di": 1971,
      "da": 1972,
      "##ey": 1973,
      "##dı": 1974,
      "##iş": 1975,
      "ba": 1976,
      "##am": 1977,
      "##it": 1978,
      "##um": 1979,
      "##ların": 1980,
      "##den": 1981,
      "##ım": 1982,
      "##ız": 1983,
      "##ya": 1984,
      "##ul": 1985,
      "gö": 1986,
      "##li": 1987,
      "##dan": 1988,
      "##st": 1989,
      "iç": 1990,
      "ar": 1991,
      "##ıl": 1992,
      "##ok": 1993,
      "##ları": 1994,
      "sa": 1995,
      "##ık": 1996,
      "yap": 1997,
      "##ini": 1998,
      "##ış": 1999,
      "##du": 2000,
      "i̇": 2001,
      "##ında": 2002,
      "##ol": 2003,
      "##ine": 2004,
      "##ta": 2005,
      "##ec": 2006,
      "##inde": 2007,
      "an": 2008,
      "baş": 2009,
      "##bil": 2010,
      "##ük": 2011,
      "##yor": 2012,
      "için": 2013,
      "##mas": 2014,
      "##ti": 2015,
      "##az": 2016,
      "##esi": 2017,
      "al": 2018,
      "##iyor": 2019,
      "##mak": 2020,
      "##üz": 2021,
      "##tı": 2022,
      "##leri": 2023,
      "##üm": 2024,
      "##dir": 2025,
      "##ğı": 2026,
      "##iler": 2027,
      "##eler": 2028,
      "kar": 2029,
      "gör": 2030,
      "in": 2031,
      "##te": 2032,
      "##ca": 2033,
      "##ev": 2034,
      "##ını": 2035,
      "##ra": 2036,
      "ile": 2037,
      "##cak": 2038,
      "son": 2039,
      "##me": 2040,
      "et": 2041,
      "##dır": 2042,
      "bil": 2043,
      "##mek": 2044,
      "##lık": 2045,
      "##ği": 2046,
      "##inin": 2047,
      "##uş": 2048,
      "gel": 2049,
      "##uz": 2050,
      "ger": 2051,
      "##ce": 2052,
      "ver": 2053,
      "ay": 2054,
      "ön": 2055,
      "##iye": 2056,
      "kon": 2057,
      "ta": 2058,
      "##ha": 2059,
      "##oğ": 2060,
      "##ına": 2061,
      "##ut": 2062,
      "##eç": 2063,
      "en": 2064,
      "##lik": 2065,
      "##us": 2066,
      "##uk": 2067,
      "il": 2068,
      "oldu": 2069,
      "##ön": 2070,
      "##tir": 2071,
      "##üş": 2072,
      "ne": 2073,
      "##len": 2074,
      "##ara": 2075,
      "##ıs": 2076,
      "değ": 2077,
      "##larak": 2078,
      "##tır": 2079,
      "ed": 2080,
      "##bi": 2081,
      "##unu": 2082,
      "kur": 2083,
      "ha": 2084,
      "##ez": 2085,
      "##iniz": 2086,
      "iş": 2087,
      "gi": 2088,
      "##man": 2089,
      "tür": 2090,
      "çok": 2091,
      "##alı": 2092,
      "##cı": 2093,
      "##ması": 2094,
      "olarak": 2095,
      "##ro": 2096,
      "##şı": 2097,
      "##ip": 2098,
      "or": 2099,
      "##bilir": 2100,
      "yer": 2101,
      "##se": 2102,
      "##öy": 2103,
      "gün": 2104,
      "ben": 2105,
      "bel": 2106,
      "kad": 2107,
      "ko": 2108,
      "##anı": 2109,
      "her": 2110,
      "ma": 2111,
      "ist": 2112,
      "##ından": 2113,
      "##ül": 2114,
      "20": 2115,
      "##mış": 2116,
      "##tan": 2117,
      "##ka": 2118,
      "##ed": 2119,
      "olan": 2120,
      "on": 2121,
      "daha": 2122,
      "##lay": 2123,
      "yıl": 2124,
      "##ki": 2125,
      "bul": 2126,
      "bü": 2127,
      "##ası": 2128,
      "##miş": 2129,
      "var": 2130,
      "##lama": 2131,
      "aç": 2132,
      "##laş": 2133,
      "##sa": 2134,
      "olduğ": 2135,
      "türk": 2136,
      "##lu": 2137,
      "##op": 2138,
      "öz": 2139,
      "kul": 2140,
      "##aki": 2141,
      "##yon": 2142,
      "sür": 2143,
      "##imiz": 2144,
      "ken": 2145,
      "geç": 2146,
      "yar": 2147,
      "uy": 2148,
      "ara": 2149,
      "##eni": 2150,
      "##eki": 2151,
      "##eş": 2152,
      "##ının": 2153,
      "##ecek": 2154,
      "##ci": 2155,
      "ama": 2156,
      "##ba": 2157,
      "ak": 2158,
      "çık": 2159,
      "kullan": 2160,
      "çalı": 2161,
      "##isi": 2162,
      "##ili": 2163,
      "##ken": 2164,
      "##ece": 2165,
      "gibi": 2166,
      "##ör": 2167,
      "##zer": 2168,
      "##san": 2169,
      "##aman": 2170,
      "tek": 2171,
      "##öyle": 2172,
      "yaş": 2173,
      "##lerin": 2174,
      "pro": 2175,
      "##ret": 2176,
      "kal": 2177,
      "ek": 2178,
      "yön": 2179,
      "gerek": 2180,
      "##yla": 2181,
      "bak": 2182,
      "çalış": 2183,
      "tar": 2184,
      "kadar": 2185,
      "yan": 2186,
      "say": 2187,
      "dev": 2188,
      "##eye": 2189,
      "kay": 2190,
      "##ru": 2191,
      "sağ": 2192,
      "büy": 2193,
      "##let": 2194,
      "##eli": 2195,
      "##ılı": 2196,
      "##ih": 2197,
      "top": 2198,
      "gen": 2199,
      "##unda": 2200,
      "er": 2201,
      "##os": 2202,
      "##lü": 2203,
      "mü": 2204,
      "ev": 2205,
      "##leş": 2206,
      "sor": 2207,
      "üzer": 2208,
      "##diğ": 2209,
      "el": 2210,
      "zaman": 2211,
      "##ımız": 2212,
      "##aya": 2213,
      "düş": 2214,
      "##ers": 2215,
      "yaz": 2216,
      "olma": 2217,
      "##ap": 2218,
      "doğ": 2219,
      "oy": 2220,
      "ola": 2221,
      "par": 2222,
      "den": 2223,
      "##met": 2224,
      "##eh": 2225,
      "##larını": 2226,
      "##ilen": 2227,
      "##lara": 2228,
      "##ist": 2229,
      "##lem": 2230,
      "##daki": 2231,
      "dur": 2232,
      "bo": 2233,
      "hay": 2234,
      "gü": 2235,
      "##va": 2236,
      "bulun": 2237,
      "##dığ": 2238,
      "san": 2239,
      "##ter": 2240,
      "##ilm": 2241,
      "##gi": 2242,
      "##iyle": 2243,
      "sonra": 2244,
      "bun": 2245,
      "eğ": 2246,
      "##men": 2247,
      "##iyet": 2248,
      "öğ": 2249,
      "##inden": 2250,
      "biz": 2251,
      "##ah": 2252,
      "yapı": 2253,
      "hak": 2254,
      "##öz": 2255,
      "##fa": 2256,
      "##dım": 2257,
      "##iç": 2258,
      "kap": 2259,
      "şey": 2260,
      "##eb": 2261,
      "yeni": 2262,
      "tara": 2263,
      "##ark": 2264,
      "##tur": 2265,
      "siz": 2266,
      "201": 2267,
      "##yi": 2268,
      "büyük": 2269,
      "hal": 2270,
      "##om": 2271,
      "##öl": 2272,
      "##arı": 2273,
      "##cu": 2274,
      "dön": 2275,
      "nin": 2276,
      "##asında": 2277,
      "özel": 2278,
      "##ınız": 2279,
      "##ren": 2280,
      "değil": 2281,
      "##maya": 2282,
      "taraf": 2283,
      "##uy": 2284,
      "do": 2285,
      "mil": 2286,
      "##gu": 2287,
      "yak": 2288,
      "sen": 2289,
      "##der": 2290,
      "as": 2291,
      "es": 2292,
      "türkiye": 2293,
      "##dığı": 2294,
      "sah": 2295,
      "yüz": 2296,
      "##ab": 2297,
      "##ep": 2298,
      "uz": 2299,
      "##imi": 2300,
      "##ten": 2301,
      "##ede": 2302,
      "##larda": 2303,
      "karşı": 2304,
      "böl": 2305,
      "##ans": 2306,
      "##ot": 2307,
      "##eri": 2308,
      "alan": 2309,
      "belir": 2310,
      "tak": 2311,
      "bur": 2312,
      "şek": 2313,
      "gerç": 2314,
      "mu": 2315,
      "##lam": 2316,
      "dün": 2317,
      "##if": 2318,
      "ise": 2319,
      "mer": 2320,
      "sev": 2321,
      "##ic": 2322,
      "kend": 2323,
      "##sun": 2324,
      "ın": 2325,
      "##deki": 2326,
      "ok": 2327,
      "##dür": 2328,
      "##diği": 2329,
      "##lerini": 2330,
      "##arak": 2331,
      "gir": 2332,
      "başk": 2333,
      "kiş": 2334,
      "##ıyor": 2335,
      "yol": 2336,
      "##i̇": 2337,
      "der": 2338,
      "ser": 2339,
      "düz": 2340,
      "gerçek": 2341,
      "##bul": 2342,
      "tem": 2343,
      "##lk": 2344,
      "yük": 2345,
      "har": 2346,
      "##lat": 2347,
      "##cağ": 2348,
      "at": 2349,
      "##ana": 2350,
      "yok": 2351,
      "##tr": 2352,
      "açık": 2353,
      "ki": 2354,
      "söyle": 2355,
      "##kin": 2356,
      "##00": 2357,
      "veya": 2358,
      "hem": 2359,
      "##makta": 2360,
      "di": 2361,
      "##tü": 2362,
      "bağ": 2363,
      "ilg": 2364,
      "has": 2365,
      "su": 2366,
      "##lığı": 2367,
      "##larının": 2368,
      "##eleri": 2369,
      "iyi": 2370,
      "ada": 2371,
      "göre": 2372,
      "##elik": 2373,
      "insan": 2374,
      "19": 2375,
      "##re": 2376,
      "##sel": 2377,
      "##yan": 2378,
      "neden": 2379,
      "##ster": 2380,
      "##iv": 2381,
      "ilk": 2382,
      "ço": 2383,
      "haz": 2384,
      "yet": 2385,
      "##esinde": 2386,
      "ayr": 2387,
      "tarih": 2388,
      "ün": 2389,
      "önem": 2390,
      "##ef": 2391,
      "ad": 2392,
      "##ısı": 2393,
      "##mesi": 2394,
      "##ram": 2395,
      "##eceğ": 2396,
      "un": 2397,
      "##mekte": 2398,
      "##dü": 2399,
      "##siniz": 2400,
      "alt": 2401,
      "##ber": 2402,
      "##est": 2403,
      "tan": 2404,
      "seç": 2405,
      "##lere": 2406,
      "##uyor": 2407,
      "##erek": 2408,
      "tüm": 2409,
      "söz": 2410,
      "##iyorum": 2411,
      "ağ": 2412,
      "##larına": 2413,
      "##bir": 2414,
      "##ley": 2415,
      "iz": 2416,
      "##una": 2417,
      "tarafından": 2418,
      "##maz": 2419,
      "durum": 2420,
      "ort": 2421,
      "edil": 2422,
      "mo": 2423,
      "ter": 2424,
      "göster": 2425,
      "##yı": 2426,
      "olduğunu": 2427,
      "##dik": 2428,
      "##ünü": 2429,
      "kat": 2430,
      "fark": 2431,
      "sır": 2432,
      "yönet": 2433,
      "##mam": 2434,
      "göz": 2435,
      "aş": 2436,
      "nın": 2437,
      "öğren": 2438,
      "##lığ": 2439,
      "##iyat": 2440,
      "art": 2441,
      "önce": 2442,
      "kaz": 2443,
      "##ça": 2444,
      "çek": 2445,
      "##si": 2446,
      "av": 2447,
      "hiz": 2448,
      "değiş": 2449,
      "ab": 2450,
      "kor": 2451,
      "olduğu": 2452,
      "##dık": 2453,
      "get": 2454,
      "öl": 2455,
      "hiç": 2456,
      "i̇n": 2457,
      "##dece": 2458,
      "##art": 2459,
      "şekil": 2460,
      "hizmet": 2461,
      "##muş": 2462,
      "az": 2463,
      "##ran": 2464,
      "getir": 2465,
      "##ada": 2466,
      "##eyi": 2467,
      "genel": 2468,
      "##larında": 2469,
      "eğit": 2470,
      "ülk": 2471,
      "##lah": 2472,
      "bin": 2473,
      "##ven": 2474,
      "kurul": 2475,
      "kan": 2476,
      "mi": 2477,
      "hat": 2478,
      "##liği": 2479,
      "oluş": 2480,
      "bilg": 2481,
      "te": 2482,
      "##maktadır": 2483,
      "şu": 2484,
      "##sı": 2485,
      "##leştir": 2486,
      "uygu": 2487,
      "ayn": 2488,
      "bas": 2489,
      "sat": 2490,
      "alı": 2491,
      "##aret": 2492,
      "dış": 2493,
      "ih": 2494,
      "##ğu": 2495,
      "##asyon": 2496,
      "##tür": 2497,
      "##unun": 2498,
      "##ğer": 2499,
      "##ileri": 2500,
      "##cuk": 2501,
      "##daş": 2502,
      "hayat": 2503,
      "##up": 2504,
      "yay": 2505,
      "i̇st": 2506,
      "kim": 2507,
      "##mektedir": 2508,
      "tut": 2509,
      "güz": 2510,
      "kö": 2511,
      "##dur": 2512,
      "##tik": 2513,
      "##han": 2514,
      "##bilirsiniz": 2515,
      "ilgili": 2516,
      "etti": 2517,
      "değer": 2518,
      "##üs": 2519,
      "##ımı": 2520,
      "ot": 2521,
      "mes": 2522,
      "faz": 2523,
      "devam": 2524,
      "##ad": 2525,
      "çocuk": 2526,
      "bay": 2527,
      "şekilde": 2528,
      "is": 2529,
      "sonu": 2530,
      "##ika": 2531,
      "##eğ": 2532,
      "hakk": 2533,
      "zor": 2534,
      "##raf": 2535,
      "duy": 2536,
      "iki": 2537,
      "düzen": 2538,
      "##id": 2539,
      "güzel": 2540,
      "geliş": 2541,
      "##por": 2542,
      "konuş": 2543,
      "olur": 2544,
      "ör": 2545,
      "##acak": 2546,
      "diğer": 2547,
      "##ağ": 2548,
      "önemli": 2549,
      "##liğ": 2550,
      "bek": 2551,
      "##ıp": 2552,
      "kıs": 2553,
      "fazla": 2554,
      "birlik": 2555,
      "baz": 2556,
      "##lardan": 2557,
      "##kez": 2558,
      "oyun": 2559,
      "##usu": 2560,
      "çalışma": 2561,
      "10": 2562,
      "##mes": 2563,
      "sahip": 2564,
      "ür": 2565,
      "yaptı": 2566,
      "güven": 2567,
      "##lerde": 2568,
      "##olo": 2569,
      "##siz": 2570,
      "##istem": 2571,
      "başla": 2572,
      "aynı": 2573,
      "tes": 2574,
      "##üt": 2575,
      "içinde": 2576,
      "sadece": 2577,
      "200": 2578,
      "em": 2579,
      "konu": 2580,
      "merkez": 2581,
      "eğitim": 2582,
      "##lacak": 2583,
      "hazır": 2584,
      "##lerinin": 2585,
      "##tar": 2586,
      "sistem": 2587,
      "##gün": 2588,
      "##tu": 2589,
      "##anbul": 2590,
      "ancak": 2591,
      "kam": 2592,
      "##sek": 2593,
      "sit": 2594,
      "##çe": 2595,
      "##dim": 2596,
      "##enin": 2597,
      "tekn": 2598,
      "##sız": 2599,
      "am": 2600,
      "düşün": 2601,
      "kes": 2602,
      "##rup": 2603,
      "yardım": 2604,
      "arasında": 2605,
      "##lendir": 2606,
      "arka": 2607,
      "##ındaki": 2608,
      "diye": 2609,
      "nas": 2610,
      "mal": 2611,
      "bölg": 2612,
      "ayrı": 2613,
      "##kü": 2614,
      "##ile": 2615,
      "##lerine": 2616,
      "##meye": 2617,
      "alın": 2618,
      "##ilik": 2619,
      "üst": 2620,
      "ede": 2621,
      "##del": 2622,
      "eş": 2623,
      "##tör": 2624,
      "saat": 2625,
      "i̇ş": 2626,
      "mah": 2627,
      "haf": 2628,
      "tel": 2629,
      "gelen": 2630,
      "##ayı": 2631,
      "kız": 2632,
      "benim": 2633,
      "##na": 2634,
      "##ünde": 2635,
      "bey": 2636,
      "dönem": 2637,
      "##larla": 2638,
      "büt": 2639,
      "i̇stanbul": 2640,
      "fa": 2641,
      "dan": 2642,
      "im": 2643,
      "##oloj": 2644,
      "olacak": 2645,
      "üret": 2646,
      "kit": 2647,
      "##dığını": 2648,
      "yapılan": 2649,
      "##ket": 2650,
      "böyle": 2651,
      "##ban": 2652,
      "##gun": 2653,
      "görev": 2654,
      "etk": 2655,
      "##mem": 2656,
      "##ig": 2657,
      "yapıl": 2658,
      "kü": 2659,
      "doğru": 2660,
      "dik": 2661,
      "dünya": 2662,
      "sal": 2663,
      "birlikte": 2664,
      "##likle": 2665,
      "##gram": 2666,
      "içer": 2667,
      "##ıcı": 2668,
      "git": 2669,
      "##bet": 2670,
      "boy": 2671,
      "sek": 2672,
      "ürün": 2673,
      "i̇s": 2674,
      "kı": 2675,
      "kendi": 2676,
      "gaz": 2677,
      "tur": 2678,
      "kom": 2679,
      "mak": 2680,
      "yüksek": 2681,
      "olmak": 2682,
      "ye": 2683,
      "nasıl": 2684,
      "##eyen": 2685,
      "karar": 2686,
      "mı": 2687,
      "so": 2688,
      "##tiğ": 2689,
      "mad": 2690,
      "başkanı": 2691,
      "orta": 2692,
      "farklı": 2693,
      "##mıştır": 2694,
      "##iya": 2695,
      "##ehir": 2696,
      "##det": 2697,
      "eden": 2698,
      "kazan": 2699,
      "kadın": 2700,
      "bah": 2701,
      "##cel": 2702,
      "tas": 2703,
      "##iyon": 2704,
      "##lanan": 2705,
      "##dar": 2706,
      "##ne": 2707,
      "üy": 2708,
      "##masını": 2709,
      "##kan": 2710,
      "##sin": 2711,
      "fir": 2712,
      "bunun": 2713,
      "fak": 2714,
      "bit": 2715,
      "başka": 2716,
      "önc": 2717,
      "ban": 2718,
      "beled": 2719,
      "##larımız": 2720,
      "##eme": 2721,
      "##lo": 2722,
      "##iyas": 2723,
      "##ilerin": 2724,
      "program": 2725,
      "##miştir": 2726,
      "başkan": 2727,
      "res": 2728,
      "pol": 2729,
      "iliş": 2730,
      "proj": 2731,
      "haber": 2732,
      "mut": 2733,
      "##af": 2734,
      "##laya": 2735,
      "bır": 2736,
      "##lak": 2737,
      "##ivers": 2738,
      "##rak": 2739,
      "çev": 2740,
      "##layan": 2741,
      "ulaş": 2742,
      "##dem": 2743,
      "##ılan": 2744,
      "çıkar": 2745,
      "bölüm": 2746,
      "can": 2747,
      "##iversit": 2748,
      "##leme": 2749,
      "##lerinde": 2750,
      "kr": 2751,
      "##abil": 2752,
      "görün": 2753,
      "dav": 2754,
      "sı": 2755,
      "##ildi": 2756,
      "bırak": 2757,
      "##olu": 2758,
      "bazı": 2759,
      "##luk": 2760,
      "##esine": 2761,
      "##masına": 2762,
      "cum": 2763,
      "sık": 2764,
      "bütün": 2765,
      "bile": 2766,
      "film": 2767,
      "##üp": 2768,
      "üniversit": 2769,
      "##yal": 2770,
      "##ri": 2771,
      "bunu": 2772,
      "i̇l": 2773,
      "mar": 2774,
      "üç": 2775,
      "gön": 2776,
      "ku": 2777,
      "şim": 2778,
      "15": 2779,
      "devlet": 2780,
      "##ğü": 2781,
      "##üne": 2782,
      "##hur": 2783,
      "bugün": 2784,
      "##iyoruz": 2785,
      "##larından": 2786,
      "han": 2787,
      "##malı": 2788,
      "bana": 2789,
      "güç": 2790,
      "din": 2791,
      "##mez": 2792,
      "##eket": 2793,
      "##emiz": 2794,
      "tam": 2795,
      "belirt": 2796,
      "biri": 2797,
      "hep": 2798,
      "met": 2799,
      "kaç": 2800,
      "adam": 2801,
      "##ira": 2802,
      "kır": 2803,
      "uzun": 2804,
      "##diğini": 2805,
      "##tık": 2806,
      "##kat": 2807,
      "arkadaş": 2808,
      "##cü": 2809,
      "##indeki": 2810,
      "po": 2811,
      "##mal": 2812,
      "ik": 2813,
      "##lus": 2814,
      "##be": 2815,
      "yür": 2816,
      "sun": 2817,
      "##tal": 2818,
      "görüş": 2819,
      "##usunda": 2820,
      "fiyat": 2821,
      "bulunan": 2822,
      "##ing": 2823,
      "ho": 2824,
      "müdür": 2825,
      "hakkında": 2826,
      "12": 2827,
      "bar": 2828,
      "tamam": 2829,
      "##van": 2830,
      "eder": 2831,
      "man": 2832,
      "##gil": 2833,
      "##üyor": 2834,
      "sorun": 2835,
      "##ilmesi": 2836,
      "ifa": 2837,
      "##esini": 2838,
      "hasta": 2839,
      "dest": 2840,
      "dedi": 2841,
      "##sal": 2842,
      "dem": 2843,
      "yayın": 2844,
      "##isinde": 2845,
      "##kı": 2846,
      "##net": 2847,
      "öğret": 2848,
      "##mayı": 2849,
      "##ayan": 2850,
      "##gan": 2851,
      "şir": 2852,
      "ro": 2853,
      "##ulu": 2854,
      "olması": 2855,
      "çün": 2856,
      "cumhur": 2857,
      "##şa": 2858,
      "dil": 2859,
      "işlem": 2860,
      "sağlık": 2861,
      "sos": 2862,
      "uygun": 2863,
      "onun": 2864,
      "çünkü": 2865,
      "hız": 2866,
      "##ebil": 2867,
      "dikkat": 2868,
      "abd": 2869,
      "hük": 2870,
      "destek": 2871,
      "rah": 2872,
      "plan": 2873,
      "iht": 2874,
      "##lantı": 2875,
      "muh": 2876,
      "bakan": 2877,
      "##lıyor": 2878,
      "küç": 2879,
      "genç": 2880,
      "##ebilir": 2881,
      "##sam": 2882,
      "yem": 2883,
      "##lerden": 2884,
      "##lük": 2885,
      "üzerine": 2886,
      "##dum": 2887,
      "yüzde": 2888,
      "yani": 2889,
      "##ide": 2890,
      "##yle": 2891,
      "olduk": 2892,
      "##gı": 2893,
      "li": 2894,
      "burada": 2895,
      "##bar": 2896,
      "geçir": 2897,
      "tah": 2898,
      "##lerle": 2899,
      "olay": 2900,
      "dok": 2901,
      "##onom": 2902,
      "kurum": 2903,
      "oluştur": 2904,
      "üzere": 2905,
      "teş": 2906,
      "hareket": 2907,
      "ayrıca": 2908,
      "onu": 2909,
      "ber": 2910,
      "##çı": 2911,
      "ulus": 2912,
      "na": 2913,
      "##las": 2914,
      "##vaş": 2915,
      "tasar": 2916,
      "eğer": 2917,
      "çöz": 2918,
      "yılında": 2919,
      "##atı": 2920,
      "##duğu": 2921,
      "mev": 2922,
      "şirket": 2923,
      "##oğlu": 2924,
      "##rar": 2925,
      "diy": 2926,
      "taşı": 2927,
      "artık": 2928,
      "##unuz": 2929,
      "ren": 2930,
      "yor": 2931,
      "##mi": 2932,
      "ihtiya": 2933,
      "üzerinde": 2934,
      "for": 2935,
      "##ştır": 2936,
      "##lerinden": 2937,
      "##bol": 2938,
      "##ime": 2939,
      "kişi": 2940,
      "##tım": 2941,
      "müz": 2942,
      "pay": 2943,
      "##ver": 2944,
      "##ümüz": 2945,
      "iste": 2946,
      "##cek": 2947,
      "kabul": 2948,
      "##gel": 2949,
      "katı": 2950,
      "küçük": 2951,
      "##tığ": 2952,
      "##manın": 2953,
      "anlam": 2954,
      "##sta": 2955,
      "##lenen": 2956,
      "##bak": 2957,
      "##elerin": 2958,
      "tr": 2959,
      "11": 2960,
      "milyon": 2961,
      "para": 2962,
      "erk": 2963,
      "oda": 2964,
      "ch": 2965,
      "##lum": 2966,
      "##cağı": 2967,
      "ah": 2968,
      "bor": 2969,
      "##uma": 2970,
      "##lamak": 2971,
      "##istan": 2972,
      "sak": 2973,
      "ekonom": 2974,
      "aşa": 2975,
      "avrup": 2976,
      "##eti": 2977,
      "şimdi": 2978,
      "ey": 2979,
      "eski": 2980,
      "gerçekleştir": 2981,
      "##ch": 2982,
      "öğrenc": 2983,
      "yaşa": 2984,
      "##ıldı": 2985,
      "##ladı": 2986,
      "halk": 2987,
      "##ızı": 2988,
      "ortaya": 2989,
      "bilgi": 2990,
      "kayn": 2991,
      "ediyor": 2992,
      "##esinin": 2993,
      "sonr": 2994,
      "sosyal": 2995,
      "kül": 2996,
      "araştır": 2997,
      "nok": 2998,
      "yaklaş": 2999,
      "yine": 3000,
      "yakın": 3001,
      "##sın": 3002,
      "mas": 3003,
      "##inizi": 3004,
      "sonuç": 3005,
      "##anın": 3006,
      "##ali": 3007,
      "##ılır": 3008,
      "hafta": 3009,
      "beni": 3010,
      "seb": 3011,
      "kolay": 3012,
      "spor": 3013,
      "ard": 3014,
      "##kara": 3015,
      "telef": 3016,
      "ifade": 3017,
      "si": 3018,
      "##ılması": 3019,
      "uygulama": 3020,
      "gönder": 3021,
      "hava": 3022,
      "##umuz": 3023,
      "hüküm": 3024,
      "##bah": 3025,
      "koy": 3026,
      "dir": 3027,
      "per": 3028,
      "##ıt": 3029,
      "##lım": 3030,
      "bizim": 3031,
      "##işim": 3032,
      "tat": 3033,
      "##za": 3034,
      "telefon": 3035,
      "geçen": 3036,
      "his": 3037,
      "avrupa": 3038,
      "##ge": 3039,
      "sıra": 3040,
      "tanı": 3041,
      "##atan": 3042,
      "biraz": 3043,
      "##çi": 3044,
      "günü": 3045,
      "taş": 3046,
      "etmek": 3047,
      "##eniz": 3048,
      "##suz": 3049,
      "##duğ": 3050,
      "yen": 3051,
      "30": 3052,
      "geri": 3053,
      "maç": 3054,
      "çeş": 3055,
      "18": 3056,
      "dolay": 3057,
      "du": 3058,
      "##din": 3059,
      "hiçbir": 3060,
      "yönetim": 3061,
      "hes": 3062,
      "sar": 3063,
      "başar": 3064,
      "anla": 3065,
      "##maları": 3066,
      "cez": 3067,
      "özellikle": 3068,
      "##abilir": 3069,
      "##ilir": 3070,
      "herk": 3071,
      "ses": 3072,
      "##landır": 3073,
      "kısa": 3074,
      "##acağ": 3075,
      "##lerimiz": 3076,
      "madde": 3077,
      "takım": 3078,
      "vur": 3079,
      "millet": 3080,
      "konusunda": 3081,
      "pek": 3082,
      "##for": 3083,
      "kontr": 3084,
      "kav": 3085,
      "ankara": 3086,
      "##meler": 3087,
      "##per": 3088,
      "##isini": 3089,
      "söyledi": 3090,
      "##eceği": 3091,
      "ardından": 3092,
      "sanat": 3093,
      "yatır": 3094,
      "nun": 3095,
      "rahat": 3096,
      "yerine": 3097,
      "kez": 3098,
      "##madan": 3099,
      "gelir": 3100,
      "mem": 3101,
      "paz": 3102,
      "##ort": 3103,
      "kol": 3104,
      "##eden": 3105,
      "kültür": 3106,
      "mey": 3107,
      "okul": 3108,
      "senin": 3109,
      "ala": 3110,
      "diz": 3111,
      "##oğraf": 3112,
      "ders": 3113,
      "allah": 3114,
      "deniz": 3115,
      "##doğ": 3116,
      "kil": 3117,
      "##tığı": 3118,
      "##tif": 3119,
      "araç": 3120,
      "erkek": 3121,
      "##gin": 3122,
      "bilin": 3123,
      "gazet": 3124,
      "olabilir": 3125,
      "##asına": 3126,
      "lis": 3127,
      "birç": 3128,
      "##şıyor": 3129,
      "##may": 3130,
      "nde": 3131,
      "kitap": 3132,
      "siyas": 3133,
      "sav": 3134,
      "mek": 3135,
      "##siyon": 3136,
      "fot": 3137,
      "##ince": 3138,
      "##pr": 3139,
      "kontrol": 3140,
      "##tem": 3141,
      "örn": 3142,
      "##cret": 3143,
      "değerlendir": 3144,
      "süre": 3145,
      "##urt": 3146,
      "##oz": 3147,
      "##og": 3148,
      "yapan": 3149,
      "kas": 3150,
      "fır": 3151,
      "ziy": 3152,
      "##edef": 3153,
      "##arası": 3154,
      "ücret": 3155,
      "hemen": 3156,
      "size": 3157,
      "##tin": 3158,
      "seçim": 3159,
      "##elim": 3160,
      "##vur": 3161,
      "edilen": 3162,
      "prof": 3163,
      "açıklama": 3164,
      "çağ": 3165,
      "yaşam": 3166,
      "toplum": 3167,
      "yaptığı": 3168,
      "##dın": 3169,
      "kaynak": 3170,
      "herkes": 3171,
      "##vi": 3172,
      "dak": 3173,
      "ask": 3174,
      "##isine": 3175,
      "hedef": 3176,
      "cev": 3177,
      "birçok": 3178,
      "th": 3179,
      "##tim": 3180,
      "müş": 3181,
      "kalit": 3182,
      "yanı": 3183,
      "çeşit": 3184,
      "se": 3185,
      "##ınır": 3186,
      "ziyaret": 3187,
      "com": 3188,
      "dair": 3189,
      "##sanız": 3190,
      "sey": 3191,
      "sektör": 3192,
      "##ünün": 3193,
      "ner": 3194,
      "i̇z": 3195,
      "serv": 3196,
      "##unca": 3197,
      "uç": 3198,
      "##bu": 3199,
      "##baş": 3200,
      "rek": 3201,
      "##kinci": 3202,
      "yarat": 3203,
      "yağ": 3204,
      "##ılmış": 3205,
      "savaş": 3206,
      "bağlı": 3207,
      "kah": 3208,
      "##ıda": 3209,
      "##aj": 3210,
      "beş": 3211,
      "tic": 3212,
      "##ici": 3213,
      "##landı": 3214,
      "başvur": 3215,
      "köy": 3216,
      "bildir": 3217,
      "2018": 3218,
      "##mey": 3219,
      "st": 3220,
      "##sunuz": 3221,
      "vardır": 3222,
      "soru": 3223,
      "gider": 3224,
      "14": 3225,
      "dah": 3226,
      "##ve": 3227,
      "dr": 3228,
      "şeh": 3229,
      "kut": 3230,
      "suç": 3231,
      "kapsam": 3232,
      "vatan": 3233,
      "teknoloj": 3234,
      "16": 3235,
      "söy": 3236,
      "elek": 3237,
      "altında": 3238,
      "25": 3239,
      "##min": 3240,
      "sur": 3241,
      "model": 3242,
      "##ilere": 3243,
      "fakat": 3244,
      "part": 3245,
      "##eceğini": 3246,
      "sana": 3247,
      "##ternet": 3248,
      "##fen": 3249,
      "dö": 3250,
      "13": 3251,
      "uğ": 3252,
      "geliştir": 3253,
      "##uluk": 3254,
      "isim": 3255,
      "##kün": 3256,
      "iti": 3257,
      "id": 3258,
      "mis": 3259,
      "##ekli": 3260,
      "vak": 3261,
      "##sik": 3262,
      "temiz": 3263,
      "la": 3264,
      "karş": 3265,
      "teknik": 3266,
      "##meden": 3267,
      "zar": 3268,
      "istem": 3269,
      "değişik": 3270,
      "men": 3271,
      "içerisinde": 3272,
      "sınır": 3273,
      "##oğun": 3274,
      "##asını": 3275,
      "merkezi": 3276,
      "##sak": 3277,
      "pat": 3278,
      "müca": 3279,
      "##müş": 3280,
      "seni": 3281,
      "tale": 3282,
      "ait": 3283,
      "olsun": 3284,
      "af": 3285,
      "##düğ": 3286,
      "##ga": 3287,
      "##umlu": 3288,
      "##cih": 3289,
      "tekrar": 3290,
      "##rı": 3291,
      "i̇ç": 3292,
      "grup": 3293,
      "yapmak": 3294,
      "toplantı": 3295,
      "çar": 3296,
      "kurulu": 3297,
      "yal": 3298,
      "gereken": 3299,
      "oyn": 3300,
      "##yorum": 3301,
      "satış": 3302,
      "bilim": 3303,
      "tabi": 3304,
      "##cut": 3305,
      "boz": 3306,
      "tercih": 3307,
      "belediye": 3308,
      "ann": 3309,
      "##iyi": 3310,
      "##pan": 3311,
      "dönüş": 3312,
      "olup": 3313,
      "uzak": 3314,
      "ağır": 3315,
      "##larıyla": 3316,
      "re": 3317,
      "müşter": 3318,
      "hav": 3319,
      "olmuş": 3320,
      "indir": 3321,
      "mücadel": 3322,
      "##br": 3323,
      "##isinin": 3324,
      "##sil": 3325,
      "##sınız": 3326,
      "##tiği": 3327,
      "müm": 3328,
      "##oy": 3329,
      "çalışan": 3330,
      "tav": 3331,
      "17": 3332,
      "ona": 3333,
      "nda": 3334,
      "üniversitesi": 3335,
      "##ıntı": 3336,
      "##uyu": 3337,
      "##meyi": 3338,
      "geldi": 3339,
      "fotoğraf": 3340,
      "sok": 3341,
      "belediy": 3342,
      "yatırım": 3343,
      "i̇ngil": 3344,
      "elektr": 3345,
      "oran": 3346,
      "öyle": 3347,
      "öde": 3348,
      "renk": 3349,
      "##var": 3350,
      "##laştır": 3351,
      "sin": 3352,
      "engel": 3353,
      "tl": 3354,
      "kara": 3355,
      "##ye": 3356,
      "##ck": 3357,
      "sez": 3358,
      "alman": 3359,
      "oku": 3360,
      "temel": 3361,
      "##taş": 3362,
      "inan": 3363,
      "anlat": 3364,
      "##dak": 3365,
      "ac": 3366,
      "kötü": 3367,
      "##ayet": 3368,
      "koş": 3369,
      "##diğiniz": 3370,
      "şehir": 3371,
      "os": 3372,
      "##ilmiş": 3373,
      "aşağı": 3374,
      "##diğim": 3375,
      "fut": 3376,
      "gez": 3377,
      "adı": 3378,
      "##masının": 3379,
      "kork": 3380,
      "um": 3381,
      "of": 3382,
      "sını": 3383,
      "##undan": 3384,
      "otur": 3385,
      "paylaş": 3386,
      "teda": 3387,
      "kür": 3388,
      "ele": 3389,
      "ortak": 3390,
      "pa": 3391,
      "hastan": 3392,
      "med": 3393,
      "mik": 3394,
      "etkin": 3395,
      "ail": 3396,
      "değiştir": 3397,
      "kesin": 3398,
      "##duk": 3399,
      "sizin": 3400,
      "##erj": 3401,
      "gece": 3402,
      "yemek": 3403,
      "uluslar": 3404,
      "birbir": 3405,
      "##ekk": 3406,
      "sahi": 3407,
      "fin": 3408,
      "zamanda": 3409,
      "cin": 3410,
      "pazar": 3411,
      "##aliyet": 3412,
      "##cağını": 3413,
      "yeniden": 3414,
      "hey": 3415,
      "##isyon": 3416,
      "##rat": 3417,
      "anlaş": 3418,
      "oluyor": 3419,
      "izle": 3420,
      "num": 3421,
      "incel": 3422,
      "istiyor": 3423,
      "mec": 3424,
      "##gın": 3425,
      "nedeniyle": 3426,
      "oto": 3427,
      "düny": 3428,
      "uzman": 3429,
      "örg": 3430,
      "yorum": 3431,
      "amer": 3432,
      "yaşan": 3433,
      "ilişk": 3434,
      "asl": 3435,
      "##lüğü": 3436,
      "##fer": 3437,
      "tük": 3438,
      "##tor": 3439,
      "##su": 3440,
      "##deş": 3441,
      "i̇lk": 3442,
      "##ünden": 3443,
      "24": 3444,
      "çözüm": 3445,
      "mümkün": 3446,
      "##teş": 3447,
      "ana": 3448,
      "belki": 3449,
      "cam": 3450,
      "100": 3451,
      "##aber": 3452,
      "##ışma": 3453,
      "00": 3454,
      "çevr": 3455,
      "sınıf": 3456,
      "veren": 3457,
      "yeter": 3458,
      "ru": 3459,
      "araştırma": 3460,
      "##can": 3461,
      "kamu": 3462,
      "oldukça": 3463,
      "kaldır": 3464,
      "saldır": 3465,
      "ip": 3466,
      "beraber": 3467,
      "bize": 3468,
      "##asının": 3469,
      "belg": 3470,
      "milli": 3471,
      "yetk": 3472,
      "mahk": 3473,
      "parti": 3474,
      "kuru": 3475,
      "enerj": 3476,
      "organ": 3477,
      "##ğa": 3478,
      "##hangi": 3479,
      "faaliyet": 3480,
      "boş": 3481,
      "itibar": 3482,
      "öldür": 3483,
      "ölç": 3484,
      "herhangi": 3485,
      "199": 3486,
      "##lek": 3487,
      "futbol": 3488,
      "##doğan": 3489,
      "beb": 3490,
      "##leyen": 3491,
      "yüksel": 3492,
      "güvenlik": 3493,
      "##yo": 3494,
      "rap": 3495,
      "ayak": 3496,
      "pu": 3497,
      "ham": 3498,
      "söyley": 3499,
      "gül": 3500,
      "geniş": 3501,
      "buna": 3502,
      "##miyor": 3503,
      "teh": 3504,
      "takip": 3505,
      "giriş": 3506,
      "başladı": 3507,
      "##dana": 3508,
      "uluslararası": 3509,
      "##imizi": 3510,
      "çiz": 3511,
      "##ust": 3512,
      "bi": 3513,
      "##ecektir": 3514,
      "ila": 3515,
      "elde": 3516,
      "##aş": 3517,
      "konusu": 3518,
      "mus": 3519,
      "##yanın": 3520,
      "##ari": 3521,
      "##imde": 3522,
      "##mesini": 3523,
      "ça": 3524,
      "ilç": 3525,
      "cumhuriyet": 3526,
      "toplam": 3527,
      "fik": 3528,
      "##mel": 3529,
      "bayan": 3530,
      "yönelik": 3531,
      "bab": 3532,
      "##ize": 3533,
      "##umu": 3534,
      "daki": 3535,
      "ali": 3536,
      "##imizin": 3537,
      "gec": 3538,
      "##tiğini": 3539,
      "düşünü": 3540,
      "kuruluş": 3541,
      "net": 3542,
      "yöntem": 3543,
      "hatır": 3544,
      "##lanması": 3545,
      "mahal": 3546,
      "ikinci": 3547,
      "zat": 3548,
      "özellik": 3549,
      "yapar": 3550,
      "##ıza": 3551,
      "mez": 3552,
      "yi": 3553,
      "aday": 3554,
      "demek": 3555,
      "##alt": 3556,
      "ister": 3557,
      "rağ": 3558,
      "##do": 3559,
      "saç": 3560,
      "ora": 3561,
      "##lül": 3562,
      "şah": 3563,
      "##elen": 3564,
      "özg": 3565,
      "##elere": 3566,
      "ap": 3567,
      "üzerinden": 3568,
      "##şam": 3569,
      "ga": 3570,
      "aras": 3571,
      "görül": 3572,
      "des": 3573,
      "polis": 3574,
      "bes": 3575,
      "tarihi": 3576,
      "sına": 3577,
      "cih": 3578,
      "dol": 3579,
      "may": 3580,
      "##lim": 3581,
      "yaklaşık": 3582,
      "##üb": 3583,
      "kardeş": 3584,
      "ceza": 3585,
      "aslında": 3586,
      "dör": 3587,
      "meh": 3588,
      "##bat": 3589,
      "vatandaş": 3590,
      "##labil": 3591,
      "rapor": 3592,
      "##bo": 3593,
      "##abilirsiniz": 3594,
      "##ısında": 3595,
      "giy": 3596,
      "olmayan": 3597,
      "yara": 3598,
      "polit": 3599,
      "##lardır": 3600,
      "##üsü": 3601,
      "rus": 3602,
      "50": 3603,
      "##lüğ": 3604,
      "##elerde": 3605,
      "oğ": 3606,
      "evet": 3607,
      "##laması": 3608,
      "ilişkin": 3609,
      "sig": 3610,
      "rağmen": 3611,
      "dolar": 3612,
      "çıkan": 3613,
      "amaç": 3614,
      "##ilerini": 3615,
      "##dül": 3616,
      "##lanmış": 3617,
      "gru": 3618,
      "ilet": 3619,
      "gerekir": 3620,
      "kayıt": 3621,
      "hızlı": 3622,
      "tep": 3623,
      "yazılı": 3624,
      "##ğini": 3625,
      "##mı": 3626,
      "olsa": 3627,
      "anda": 3628,
      "iy": 3629,
      "internet": 3630,
      "21": 3631,
      "almak": 3632,
      "yaban": 3633,
      "yaln": 3634,
      "öner": 3635,
      "##taj": 3636,
      "adr": 3637,
      "unut": 3638,
      "##kanı": 3639,
      "erdoğan": 3640,
      "##amp": 3641,
      "##ate": 3642,
      "silah": 3643,
      "##eği": 3644,
      "##lis": 3645,
      "gerekli": 3646,
      "hesap": 3647,
      "dakika": 3648,
      "sürdür": 3649,
      "bakım": 3650,
      "terör": 3651,
      "kira": 3652,
      "alış": 3653,
      "veril": 3654,
      "öğretmen": 3655,
      "fay": 3656,
      "##yar": 3657,
      "gelecek": 3658,
      "##set": 3659,
      "çif": 3660,
      "fen": 3661,
      "yazı": 3662,
      "##meli": 3663,
      "##mayan": 3664,
      "yurt": 3665,
      "dışında": 3666,
      "ticaret": 3667,
      "no": 3668,
      "##fet": 3669,
      "vide": 3670,
      "zaten": 3671,
      "##ere": 3672,
      "##leriyle": 3673,
      "##diğimiz": 3674,
      "karış": 3675,
      "amacı": 3676,
      "##üy": 3677,
      "##ent": 3678,
      "yardımcı": 3679,
      "huk": 3680,
      "sam": 3681,
      "##tiv": 3682,
      "iddi": 3683,
      "yalnız": 3684,
      "##mıyor": 3685,
      "teşekk": 3686,
      "şark": 3687,
      "şöyle": 3688,
      "##ınca": 3689,
      "parça": 3690,
      "##ilerine": 3691,
      "gerçekten": 3692,
      "##mir": 3693,
      "hukuk": 3694,
      "ölüm": 3695,
      "dar": 3696,
      "##cısı": 3697,
      "##vet": 3698,
      "firma": 3699,
      "##unuyor": 3700,
      "ortam": 3701,
      "cumhurbaş": 3702,
      "osman": 3703,
      "boyunca": 3704,
      "ekip": 3705,
      "adım": 3706,
      "temsil": 3707,
      "bal": 3708,
      "yaka": 3709,
      "##uştur": 3710,
      "##muz": 3711,
      "##hale": 3712,
      "hayır": 3713,
      "yaptığ": 3714,
      "başbak": 3715,
      "yı": 3716,
      "malz": 3717,
      "##eyim": 3718,
      "istiyorum": 3719,
      "don": 3720,
      "2017": 3721,
      "nak": 3722,
      "##ant": 3723,
      "web": 3724,
      "nokta": 3725,
      "##kaç": 3726,
      "piyas": 3727,
      "kurt": 3728,
      "bilgis": 3729,
      "banka": 3730,
      "zorunda": 3731,
      "beyaz": 3732,
      "##masında": 3733,
      "doğal": 3734,
      "gar": 3735,
      "oyuncu": 3736,
      "teşekkür": 3737,
      "çocu": 3738,
      "gerçekleş": 3739,
      "sezon": 3740,
      "aldı": 3741,
      "##ısından": 3742,
      "tab": 3743,
      "##elerini": 3744,
      "olabil": 3745,
      "şart": 3746,
      "##eğin": 3747,
      "##ıyla": 3748,
      "hatta": 3749,
      "otel": 3750,
      "##mesine": 3751,
      "hik": 3752,
      "görüntü": 3753,
      "yat": 3754,
      "ke": 3755,
      "şekl": 3756,
      "çeşitli": 3757,
      "det": 3758,
      "sıcak": 3759,
      "devr": 3760,
      "yarar": 3761,
      "tu": 3762,
      "##sat": 3763,
      "adet": 3764,
      "##imize": 3765,
      "yolu": 3766,
      "derece": 3767,
      "##lanır": 3768,
      "##efer": 3769,
      "##izm": 3770,
      "değildir": 3771,
      "verdi": 3772,
      "yoğun": 3773,
      "kalan": 3774,
      "co": 3775,
      "dolayı": 3776,
      "nit": 3777,
      "birkaç": 3778,
      "##diler": 3779,
      "edin": 3780,
      "edecek": 3781,
      "bilgisay": 3782,
      "yanlı": 3783,
      "hükümet": 3784,
      "##meyen": 3785,
      "##yacak": 3786,
      "yüzden": 3787,
      "örnek": 3788,
      "zarar": 3789,
      "biliyor": 3790,
      "nor": 3791,
      "##esinden": 3792,
      "##cılık": 3793,
      "izin": 3794,
      "##lemek": 3795,
      "kaf": 3796,
      "##gen": 3797,
      "mağ": 3798,
      "pers": 3799,
      "fayda": 3800,
      "cevap": 3801,
      "##izi": 3802,
      "yapıyor": 3803,
      "sürec": 3804,
      "sp": 3805,
      "kullanıcı": 3806,
      "##dığımız": 3807,
      "##labilir": 3808,
      "durumda": 3809,
      "str": 3810,
      "i̇nsan": 3811,
      "sınav": 3812,
      "##inize": 3813,
      "gerekiyor": 3814,
      "hoş": 3815,
      "ihtiyaç": 3816,
      "tart": 3817,
      "oper": 3818,
      "22": 3819,
      "giz": 3820,
      "yapılacak": 3821,
      "ra": 3822,
      "tarihinde": 3823,
      "bat": 3824,
      "kalk": 3825,
      "geliyor": 3826,
      "##ina": 3827,
      "mot": 3828,
      "halinde": 3829,
      "sürekli": 3830,
      "yo": 3831,
      "doktor": 3832,
      "cen": 3833,
      "isteyen": 3834,
      "benzer": 3835,
      "cihaz": 3836,
      "üretim": 3837,
      "be": 3838,
      "tip": 3839,
      "##mişti": 3840,
      "savun": 3841,
      "ekonomik": 3842,
      "kons": 3843,
      "mevcut": 3844,
      "demir": 3845,
      "yabancı": 3846,
      "hayvan": 3847,
      "ten": 3848,
      "mehmet": 3849,
      "le": 3850,
      "##meleri": 3851,
      "##lif": 3852,
      "hale": 3853,
      "vardı": 3854,
      "lider": 3855,
      "sem": 3856,
      "to": 3857,
      "aşk": 3858,
      "biç": 3859,
      "sanay": 3860,
      "sahibi": 3861,
      "##matik": 3862,
      "dost": 3863,
      "##dis": 3864,
      "onlar": 3865,
      "yarış": 3866,
      "##üc": 3867,
      "kullanı": 3868,
      "##inci": 3869,
      "ruh": 3870,
      "##liyor": 3871,
      "yanında": 3872,
      "##vek": 3873,
      "tasarım": 3874,
      "yetiş": 3875,
      "hangi": 3876,
      "pr": 3877,
      "sonunda": 3878,
      "kitab": 3879,
      "canlı": 3880,
      "##tep": 3881,
      "kuz": 3882,
      "##mıştı": 3883,
      "cid": 3884,
      "##dip": 3885,
      "beklen": 3886,
      "çift": 3887,
      "asker": 3888,
      "deki": 3889,
      "the": 3890,
      "##menin": 3891,
      "karşılaş": 3892,
      "kuş": 3893,
      "sistemi": 3894,
      "başarı": 3895,
      "ödül": 3896,
      "##elerinin": 3897,
      "mesaj": 3898,
      "##pit": 3899,
      "dal": 3900,
      "sol": 3901,
      "##ton": 3902,
      "davran": 3903,
      "dünyanın": 3904,
      "tüket": 3905,
      "çoğ": 3906,
      "verilen": 3907,
      "fil": 3908,
      "yık": 3909,
      "##talya": 3910,
      "##dığım": 3911,
      "talep": 3912,
      "sayfa": 3913,
      "fon": 3914,
      "şi": 3915,
      "##ilerinin": 3916,
      "geçmiş": 3917,
      "##mat": 3918,
      "##madı": 3919,
      "bilgisayar": 3920,
      "##lilik": 3921,
      "kapsamında": 3922,
      "##manız": 3923,
      "23": 3924,
      "vü": 3925,
      "##isk": 3926,
      "dayan": 3927,
      "br": 3928,
      "it": 3929,
      "fat": 3930,
      "dahil": 3931,
      "demok": 3932,
      "##luluk": 3933,
      "##lâ": 3934,
      "dağı": 3935,
      "türlü": 3936,
      "sizi": 3937,
      "dört": 3938,
      "##tay": 3939,
      "##ırı": 3940,
      "resim": 3941,
      "kent": 3942,
      "imza": 3943,
      "##sen": 3944,
      "konuda": 3945,
      "##ült": 3946,
      "tık": 3947,
      "aydın": 3948,
      "diyor": 3949,
      "sabah": 3950,
      "##larım": 3951,
      "kre": 3952,
      "##dıkları": 3953,
      "anad": 3954,
      "yıldır": 3955,
      "akşam": 3956,
      "şeyler": 3957,
      "sözleş": 3958,
      "yazar": 3959,
      "sayılı": 3960,
      "basın": 3961,
      "tra": 3962,
      "müzik": 3963,
      "##atür": 3964,
      "oyna": 3965,
      "sayesinde": 3966,
      "##ov": 3967,
      "person": 3968,
      "i̇zmir": 3969,
      "kasım": 3970,
      "soğ": 3971,
      "ederek": 3972,
      "##ýn": 3973,
      "##ele": 3974,
      "milyar": 3975,
      "olmaz": 3976,
      "eylül": 3977,
      "kalı": 3978,
      "belli": 3979,
      "mutlu": 3980,
      "i̇ngiliz": 3981,
      "yum": 3982,
      "emek": 3983,
      "çıktı": 3984,
      "tespit": 3985,
      "##esel": 3986,
      "stan": 3987,
      "sebep": 3988,
      "laz": 3989,
      "nis": 3990,
      "bundan": 3991,
      "kaybet": 3992,
      "servis": 3993,
      "##üğ": 3994,
      "bakanı": 3995,
      "##yum": 3996,
      "ettiği": 3997,
      "##enek": 3998,
      "konuştu": 3999,
      "##lin": 4000,
      "kab": 4001,
      "ateş": 4002,
      "kendini": 4003,
      "mart": 4004,
      "başarılı": 4005,
      "güçlü": 4006,
      "karak": 4007,
      "##asyonu": 4008,
      "şeyi": 4009,
      "2016": 4010,
      "milletvek": 4011,
      "şamp": 4012,
      "##şehir": 4013,
      "##dığınız": 4014,
      "##dız": 4015,
      "##larınız": 4016,
      "##ast": 4017,
      "kilo": 4018,
      "ülkemiz": 4019,
      "dos": 4020,
      "işlet": 4021,
      "çer": 4022,
      "##lanma": 4023,
      "bizi": 4024,
      "götür": 4025,
      "siv": 4026,
      "##üman": 4027,
      "yılı": 4028,
      "##layacak": 4029,
      "40": 4030,
      "##ıldığı": 4031,
      "sırasında": 4032,
      "insanlar": 4033,
      "##rah": 4034,
      "başbakan": 4035,
      "##iran": 4036,
      "##dek": 4037,
      "yıllık": 4038,
      "gol": 4039,
      "belediyesi": 4040,
      "yanlış": 4041,
      "##ke": 4042,
      "olmalı": 4043,
      "pan": 4044,
      "detay": 4045,
      "bank": 4046,
      "rak": 4047,
      "anadolu": 4048,
      "kir": 4049,
      "ilan": 4050,
      "and": 4051,
      "güneş": 4052,
      "açı": 4053,
      "temmuz": 4054,
      "ülke": 4055,
      "yuk": 4056,
      "##iliği": 4057,
      "puan": 4058,
      "emin": 4059,
      "ocak": 4060,
      "kişinin": 4061,
      "##iğ": 4062,
      "hastalık": 4063,
      "##üf": 4064,
      "açısından": 4065,
      "zen": 4066,
      "çalışıyor": 4067,
      "dek": 4068,
      "katılım": 4069,
      "##lığını": 4070,
      "list": 4071,
      "gök": 4072,
      "alır": 4073,
      "##ela": 4074,
      "lig": 4075,
      "tesis": 4076,
      "adına": 4077,
      "##ılma": 4078,
      "aralık": 4079,
      "yıldız": 4080,
      "##ışı": 4081,
      "bakanlığı": 4082,
      "bunlar": 4083,
      "##go": 4084,
      "yu": 4085,
      "##osu": 4086,
      "kanun": 4087,
      "özgür": 4088,
      "##eder": 4089,
      "artır": 4090,
      "yoksa": 4091,
      "##pa": 4092,
      "000": 4093,
      "pak": 4094,
      "dile": 4095,
      "yerde": 4096,
      "min": 4097,
      "##omo": 4098,
      "nedenle": 4099,
      "fran": 4100,
      "kapat": 4101,
      "video": 4102,
      "##mer": 4103,
      "fi": 4104,
      "yaptık": 4105,
      "sonucu": 4106,
      "ata": 4107,
      "##lamaya": 4108,
      "arada": 4109,
      "müh": 4110,
      "##hbet": 4111,
      "##yas": 4112,
      "##ıyorum": 4113,
      "ekim": 4114,
      "##düğü": 4115,
      "doğr": 4116,
      "nef": 4117,
      "##izyon": 4118,
      "tama": 4119,
      "olacaktır": 4120,
      "yasa": 4121,
      "nerede": 4122,
      "bilgiler": 4123,
      "başvuru": 4124,
      "##luğu": 4125,
      "yere": 4126,
      "gid": 4127,
      "mahalle": 4128,
      "sh": 4129,
      "##imin": 4130,
      "kuv": 4131,
      "##layarak": 4132,
      "birliği": 4133,
      "mark": 4134,
      "##ân": 4135,
      "kullanım": 4136,
      "enerji": 4137,
      "eser": 4138,
      "kredi": 4139,
      "resmi": 4140,
      "direk": 4141,
      "üz": 4142,
      "kapı": 4143,
      "sorum": 4144,
      "düzenlenen": 4145,
      "##av": 4146,
      "tamamen": 4147,
      "##ebilirsiniz": 4148,
      "sohbet": 4149,
      "##medi": 4150,
      "müs": 4151,
      "şampiyon": 4152,
      "##şık": 4153,
      "##teg": 4154,
      "##ğın": 4155,
      "şans": 4156,
      "go": 4157,
      "##gar": 4158,
      "yaptır": 4159,
      "baba": 4160,
      "##alım": 4161,
      "akıl": 4162,
      "tec": 4163,
      "##luğ": 4164,
      "##elerine": 4165,
      "vermek": 4166,
      "##anıyor": 4167,
      "bulunduğu": 4168,
      "verir": 4169,
      "elektrik": 4170,
      "günlük": 4171,
      "##edik": 4172,
      "##stafa": 4173,
      "önceki": 4174,
      "denet": 4175,
      "##ladığı": 4176,
      "yeş": 4177,
      "##hal": 4178,
      "sayı": 4179,
      "##emi": 4180,
      "##eyin": 4181,
      "dep": 4182,
      "alıyor": 4183,
      "##eceğim": 4184,
      "güney": 4185,
      "hen": 4186,
      "onları": 4187,
      "sab": 4188,
      "mayıs": 4189,
      "mustafa": 4190,
      "belirlen": 4191,
      "haziran": 4192,
      "fr": 4193,
      "ünlü": 4194,
      "##dük": 4195,
      "müdürlüğü": 4196,
      "hâ": 4197,
      "pas": 4198,
      "siyasi": 4199,
      "bağım": 4200,
      "##ırım": 4201,
      "orada": 4202,
      "altın": 4203,
      "verdiği": 4204,
      "geçer": 4205,
      "diş": 4206,
      "bura": 4207,
      "##dığında": 4208,
      "##spor": 4209,
      "aile": 4210,
      "nokt": 4211,
      "##ısıyla": 4212,
      "key": 4213,
      "tanım": 4214,
      "itibaren": 4215,
      "teklif": 4216,
      "salon": 4217,
      "başına": 4218,
      "kart": 4219,
      "##ia": 4220,
      "seviy": 4221,
      "##inc": 4222,
      "motor": 4223,
      "##emez": 4224,
      "##atif": 4225,
      "##bı": 4226,
      "##of": 4227,
      "28": 4228,
      "kullanılan": 4229,
      "örgüt": 4230,
      "arasındaki": 4231,
      "##ama": 4232,
      "##evi": 4233,
      "inşa": 4234,
      "şeklinde": 4235,
      "##üncü": 4236,
      "hala": 4237,
      "##üst": 4238,
      "mücadele": 4239,
      "##ilerek": 4240,
      "##iliğ": 4241,
      "##ılıyor": 4242,
      "trans": 4243,
      "pey": 4244,
      "adlı": 4245,
      "##mamız": 4246,
      "##fak": 4247,
      "##unan": 4248,
      "mobil": 4249,
      "##rik": 4250,
      "##ısını": 4251,
      "normal": 4252,
      "işaret": 4253,
      "2015": 4254,
      "##ütü": 4255,
      "irak": 4256,
      "##mayacak": 4257,
      "toprak": 4258,
      "tay": 4259,
      "##elerinde": 4260,
      "gür": 4261,
      "bağlantı": 4262,
      "aldığı": 4263,
      "##diş": 4264,
      "##lığın": 4265,
      "güncel": 4266,
      "##esiyle": 4267,
      "bebek": 4268,
      "##tıyor": 4269,
      "##dikleri": 4270,
      "ciddi": 4271,
      "pen": 4272,
      "satın": 4273,
      "i̇slam": 4274,
      "##lerce": 4275,
      "##malıdır": 4276,
      "varsa": 4277,
      "araya": 4278,
      "bayram": 4279,
      "tarif": 4280,
      "##liğini": 4281,
      "##od": 4282,
      "##lıkla": 4283,
      "şiir": 4284,
      "düzey": 4285,
      "pet": 4286,
      "merak": 4287,
      "düzenlen": 4288,
      "kims": 4289,
      "##yız": 4290,
      "##fi": 4291,
      "etkil": 4292,
      "##iyeti": 4293,
      "eki": 4294,
      "durumu": 4295,
      "malzem": 4296,
      "marka": 4297,
      "öncelik": 4298,
      "##mada": 4299,
      "makin": 4300,
      "meydana": 4301,
      "##üle": 4302,
      "sitesi": 4303,
      "us": 4304,
      "edilm": 4305,
      "beri": 4306,
      "profes": 4307,
      "kimse": 4308,
      "lüt": 4309,
      "sel": 4310,
      "çat": 4311,
      "anne": 4312,
      "alınan": 4313,
      "27": 4314,
      "çal": 4315,
      "hayal": 4316,
      "##dal": 4317,
      "koru": 4318,
      "26": 4319,
      "anal": 4320,
      "mahkem": 4321,
      "günümüz": 4322,
      "meslek": 4323,
      "kanal": 4324,
      "day": 4325,
      "kuzey": 4326,
      "##ünüz": 4327,
      "alb": 4328,
      "soy": 4329,
      "mon": 4330,
      "çevir": 4331,
      "chp": 4332,
      "tör": 4333,
      "##siy": 4334,
      "yukarı": 4335,
      "form": 4336,
      "val": 4337,
      "##uru": 4338,
      "amacıyla": 4339,
      "hisse": 4340,
      "edildi": 4341,
      "müdürü": 4342,
      "olmadığını": 4343,
      "atatür": 4344,
      "proje": 4345,
      "tehlik": 4346,
      "rol": 4347,
      "##rafik": 4348,
      "##diğinde": 4349,
      "mekan": 4350,
      "ahmet": 4351,
      "oluşan": 4352,
      "nisan": 4353,
      "böylece": 4354,
      "haline": 4355,
      "vaz": 4356,
      "not": 4357,
      "cumhurbaşkanı": 4358,
      "##one": 4359,
      "alacak": 4360,
      "##ydı": 4361,
      "teslim": 4362,
      "##ati": 4363,
      "balık": 4364,
      "onların": 4365,
      "aracı": 4366,
      "##lamaz": 4367,
      "eğlen": 4368,
      "##iydi": 4369,
      "##eceğiniz": 4370,
      "düşük": 4371,
      "##ülen": 4372,
      "çan": 4373,
      "##lığa": 4374,
      "##neği": 4375,
      "ağa": 4376,
      "cep": 4377,
      "acı": 4378,
      "sanayi": 4379,
      "katkı": 4380,
      "kararı": 4381,
      "##isel": 4382,
      "ark": 4383,
      "değişiklik": 4384,
      "kuvvet": 4385,
      "yapma": 4386,
      "borç": 4387,
      "##ücü": 4388,
      "##ni": 4389,
      "atatürk": 4390,
      "yana": 4391,
      "prob": 4392,
      "otomo": 4393,
      "198": 4394,
      "ni": 4395,
      "##sine": 4396,
      "sene": 4397,
      "alma": 4398,
      "medya": 4399,
      "lira": 4400,
      "##çev": 4401,
      "##ümü": 4402,
      "isten": 4403,
      "süreç": 4404,
      "##manı": 4405,
      "##mar": 4406,
      "##nun": 4407,
      "##brıs": 4408,
      "keş": 4409,
      "kıbrıs": 4410,
      "günde": 4411,
      "##li̇": 4412,
      "ic": 4413,
      "yoktur": 4414,
      "##ınızı": 4415,
      "##olojik": 4416,
      "##gisi": 4417,
      "gerektiğini": 4418,
      "2014": 4419,
      "boyut": 4420,
      "koşul": 4421,
      "i̇şte": 4422,
      "##lulu": 4423,
      "personel": 4424,
      "çin": 4425,
      "ihtiyac": 4426,
      "##düm": 4427,
      "şarkı": 4428,
      "test": 4429,
      "vurgu": 4430,
      "sayısı": 4431,
      "esas": 4432,
      "uğra": 4433,
      "##dıktan": 4434,
      "##ova": 4435,
      "##laka": 4436,
      "##iyim": 4437,
      "insanların": 4438,
      "##lanıyor": 4439,
      "##altı": 4440,
      "ordu": 4441,
      "iler": 4442,
      "defa": 4443,
      "çerçev": 4444,
      "yapacak": 4445,
      "##leti": 4446,
      "##to": 4447,
      "görmek": 4448,
      "yeşil": 4449,
      "etme": 4450,
      "sonrası": 4451,
      "fet": 4452,
      "müsl": 4453,
      "##aray": 4454,
      "yaşayan": 4455,
      "eg": 4456,
      "##üph": 4457,
      "ediyorum": 4458,
      "bunların": 4459,
      "kişiler": 4460,
      "kok": 4461,
      "29": 4462,
      "sefer": 4463,
      "##tiğimiz": 4464,
      "perfor": 4465,
      "işi": 4466,
      "etkinlik": 4467,
      "##ade": 4468,
      "kullanıl": 4469,
      "gay": 4470,
      "problem": 4471,
      "mük": 4472,
      "eksik": 4473,
      "##ras": 4474,
      "tedav": 4475,
      "hap": 4476,
      "olmas": 4477,
      "tarım": 4478,
      "buluş": 4479,
      "beğ": 4480,
      "##lıklı": 4481,
      "##ale": 4482,
      "##etik": 4483,
      "iddia": 4484,
      "bahç": 4485,
      "çiç": 4486,
      "##50": 4487,
      "##co": 4488,
      "şüph": 4489,
      "##üme": 4490,
      "çarp": 4491,
      "programı": 4492,
      "##meniz": 4493,
      "süp": 4494,
      "fakült": 4495,
      "dönemde": 4496,
      "##lanacak": 4497,
      "öğretim": 4498,
      "öğrenciler": 4499,
      "##ucu": 4500,
      "uyar": 4501,
      "bulundu": 4502,
      "yeterli": 4503,
      "cil": 4504,
      "kampan": 4505,
      "lazım": 4506,
      "zengin": 4507,
      "uc": 4508,
      "buraya": 4509,
      "hed": 4510,
      "me": 4511,
      "edilir": 4512,
      "tedavi": 4513,
      "performan": 4514,
      "sunu": 4515,
      "içine": 4516,
      "altına": 4517,
      "hır": 4518,
      "fer": 4519,
      "##amız": 4520,
      "##uar": 4521,
      "##oloji": 4522,
      "birinci": 4523,
      "dava": 4524,
      "nes": 4525,
      "ilaç": 4526,
      "i̇yi": 4527,
      "birleş": 4528,
      "##ısına": 4529,
      "lo": 4530,
      "yapabil": 4531,
      "mıs": 4532,
      "##lerdir": 4533,
      "ıs": 4534,
      "öğrenci": 4535,
      "ayar": 4536,
      "##yım": 4537,
      "sayın": 4538,
      "sarı": 4539,
      "sayf": 4540,
      "risk": 4541,
      "amerik": 4542,
      "##cer": 4543,
      "almanya": 4544,
      "##cağız": 4545,
      "##cağım": 4546,
      "doğu": 4547,
      "reklam": 4548,
      "meclis": 4549,
      "numara": 4550,
      "başlayan": 4551,
      "memnun": 4552,
      "şid": 4553,
      "##bilecek": 4554,
      "miktar": 4555,
      "fikir": 4556,
      "temsilc": 4557,
      "komisyon": 4558,
      "##rol": 4559,
      "ker": 4560,
      "##onik": 4561,
      "rusya": 4562,
      "üyesi": 4563,
      "asla": 4564,
      "aka": 4565,
      "halde": 4566,
      "tv": 4567,
      "eve": 4568,
      "ayında": 4569,
      "ileri": 4570,
      "bazen": 4571,
      "##veriş": 4572,
      "kural": 4573,
      "türkçe": 4574,
      "onay": 4575,
      "##memiş": 4576,
      "çocuğ": 4577,
      "jo": 4578,
      "kadro": 4579,
      "idar": 4580,
      "31": 4581,
      "sonuc": 4582,
      "##par": 4583,
      "girişim": 4584,
      "hikay": 4585,
      "operasyon": 4586,
      "ekran": 4587,
      "sevg": 4588,
      "amerika": 4589,
      "##lasyon": 4590,
      "##tığını": 4591,
      "psik": 4592,
      "önünde": 4593,
      "danış": 4594,
      "düşünc": 4595,
      "##lığına": 4596,
      "sokak": 4597,
      "##ımda": 4598,
      "##ite": 4599,
      "osmanlı": 4600,
      "##ansız": 4601,
      "derin": 4602,
      "eleştir": 4603,
      "stand": 4604,
      "##line": 4605,
      "##eci": 4606,
      "tarz": 4607,
      "olmaya": 4608,
      "lütfen": 4609,
      "mühen": 4610,
      "fener": 4611,
      "##dun": 4612,
      "##rac": 4613,
      "deste": 4614,
      "saldırı": 4615,
      "arz": 4616,
      "ül": 4617,
      "ton": 4618,
      "sıkıntı": 4619,
      "peki": 4620,
      "##dam": 4621,
      "##teki": 4622,
      "kayde": 4623,
      "poz": 4624,
      "lim": 4625,
      "##duğunu": 4626,
      "çay": 4627,
      "ettik": 4628,
      "sonrasında": 4629,
      "kırm": 4630,
      "kamer": 4631,
      "birey": 4632,
      "kaliteli": 4633,
      "lisans": 4634,
      "henüz": 4635,
      "##inç": 4636,
      "altı": 4637,
      "davet": 4638,
      "edece": 4639,
      "efen": 4640,
      "belirten": 4641,
      "yargı": 4642,
      "döv": 4643,
      "anlay": 4644,
      "müslüman": 4645,
      "ücretsiz": 4646,
      "ef": 4647,
      "hizmeti": 4648,
      "##üler": 4649,
      "uçak": 4650,
      "içeri": 4651,
      "aktar": 4652,
      "doğum": 4653,
      "antalya": 4654,
      "başında": 4655,
      "##ınıza": 4656,
      "söylü": 4657,
      "##eceğiz": 4658,
      "##orta": 4659,
      "2013": 4660,
      "ulusal": 4661,
      "nüf": 4662,
      "olursa": 4663,
      "##lari": 4664,
      "boğ": 4665,
      "tıp": 4666,
      "aj": 4667,
      "##deniz": 4668,
      "dünyada": 4669,
      "##işleri": 4670,
      "##lisi": 4671,
      "artış": 4672,
      "yeri": 4673,
      "dışarı": 4674,
      "##iliyor": 4675,
      "kendisine": 4676,
      "ler": 4677,
      "ettiğ": 4678,
      "##gör": 4679,
      "karakter": 4680,
      "fes": 4681,
      "sine": 4682,
      "bitir": 4683,
      "onlara": 4684,
      "ağust": 4685,
      "##ku": 4686,
      "##cılar": 4687,
      "bahis": 4688,
      "##bur": 4689,
      "kemal": 4690,
      "yönetic": 4691,
      "##inizin": 4692,
      "bence": 4693,
      "##say": 4694,
      "##ımıza": 4695,
      "yaşanan": 4696,
      "fiz": 4697,
      "bulunmaktadır": 4698,
      "mim": 4699,
      "bölümü": 4700,
      "##med": 4701,
      "sizlere": 4702,
      "zam": 4703,
      "etkili": 4704,
      "huz": 4705,
      "park": 4706,
      "##son": 4707,
      "bol": 4708,
      "pla": 4709,
      "kurtul": 4710,
      "##ilecek": 4711,
      "etik": 4712,
      "##enler": 4713,
      "eylem": 4714,
      "##ratik": 4715,
      "##imli": 4716,
      "sağlıklı": 4717,
      "fırsat": 4718,
      "yapılması": 4719,
      "60": 4720,
      "şubat": 4721,
      "rad": 4722,
      "##best": 4723,
      "işe": 4724,
      "dağ": 4725,
      "kup": 4726,
      "aylık": 4727,
      "##muştur": 4728,
      "barış": 4729,
      "bulunuyor": 4730,
      "ayır": 4731,
      "eur": 4732,
      "bursa": 4733,
      "i̇ki": 4734,
      "kem": 4735,
      "ted": 4736,
      "ağustos": 4737,
      "##lardı": 4738,
      "##büs": 4739,
      "yunan": 4740,
      "hol": 4741,
      "hisset": 4742,
      "roman": 4743,
      "yandan": 4744,
      "##evizyon": 4745,
      "değerli": 4746,
      "mutlaka": 4747,
      "düğ": 4748,
      "köp": 4749,
      "durumunda": 4750,
      "##lenme": 4751,
      "2012": 4752,
      "beğen": 4753,
      "ant": 4754,
      "##ilendir": 4755,
      "yerel": 4756,
      "benz": 4757,
      "başlan": 4758,
      "tabii": 4759,
      "anay": 4760,
      "dolu": 4761,
      "etmiş": 4762,
      "##ırken": 4763,
      "sil": 4764,
      "yardımcısı": 4765,
      "##terek": 4766,
      "eşya": 4767,
      "##etler": 4768,
      "grubu": 4769,
      "büyükşehir": 4770,
      "##i̇n": 4771,
      "oyunu": 4772,
      "dolayısıyla": 4773,
      "araba": 4774,
      "##mm": 4775,
      "##arım": 4776,
      "komut": 4777,
      "yerleş": 4778,
      "##geç": 4779,
      "olmadığı": 4780,
      "yansı": 4781,
      "kısm": 4782,
      "zey": 4783,
      "tez": 4784,
      "##niyet": 4785,
      "def": 4786,
      "serbest": 4787,
      "güm": 4788,
      "##sef": 4789,
      "milletvekili": 4790,
      "esc": 4791,
      "hesab": 4792,
      "##ene": 4793,
      "sırada": 4794,
      "çö": 4795,
      "##rail": 4796,
      "far": 4797,
      "##ess": 4798,
      "süt": 4799,
      "iletişim": 4800,
      "##istik": 4801,
      "hizmetleri": 4802,
      "kıy": 4803,
      "##gam": 4804,
      "mat": 4805,
      "##sem": 4806,
      "##anlı": 4807,
      "del": 4808,
      "kurtar": 4809,
      "edilmesi": 4810,
      "çocuklar": 4811,
      "i̇b": 4812,
      "gıda": 4813,
      "yapacağ": 4814,
      "görüyor": 4815,
      "tartış": 4816,
      "##yonel": 4817,
      "##hi": 4818,
      "##rin": 4819,
      "tutuk": 4820,
      "##ital": 4821,
      "i̇k": 4822,
      "yönetimi": 4823,
      "500": 4824,
      "yavaş": 4825,
      "parç": 4826,
      "##ura": 4827,
      "açıklamada": 4828,
      "##ger": 4829,
      "##ımızı": 4830,
      "rahatsız": 4831,
      "neler": 4832,
      "##eyle": 4833,
      "bon": 4834,
      "dışı": 4835,
      "batı": 4836,
      "siy": 4837,
      "##dr": 4838,
      "arama": 4839,
      "müda": 4840,
      "anayas": 4841,
      "suriye": 4842,
      "düşünüyor": 4843,
      "işte": 4844,
      "bölge": 4845,
      "bed": 4846,
      "alışveriş": 4847,
      "moder": 4848,
      "##seniz": 4849,
      "escort": 4850,
      "çevre": 4851,
      "kendine": 4852,
      "veriyor": 4853,
      "##atör": 4854,
      "politika": 4855,
      "##zon": 4856,
      "##lıklar": 4857,
      "##ısının": 4858,
      "başta": 4859,
      "kelim": 4860,
      "lar": 4861,
      "turizm": 4862,
      "yetkil": 4863,
      "muha": 4864,
      "##bin": 4865,
      "alanı": 4866,
      "lik": 4867,
      "##kenin": 4868,
      "##cık": 4869,
      "##meni": 4870,
      "##ult": 4871,
      "beşik": 4872,
      "##taki": 4873,
      "##imizde": 4874,
      "##ullah": 4875,
      "çoğu": 4876,
      "tatil": 4877,
      "##ılmaz": 4878,
      "##larca": 4879,
      "siyaset": 4880,
      "firmaları": 4881,
      "erken": 4882,
      "üçüncü": 4883,
      "enf": 4884,
      "üye": 4885,
      "kateg": 4886,
      "profesyonel": 4887,
      "kategor": 4888,
      "tane": 4889,
      "koca": 4890,
      "car": 4891,
      "##asıyla": 4892,
      "##larınızı": 4893,
      "kış": 4894,
      "sanırım": 4895,
      "deneyim": 4896,
      "süper": 4897,
      "duygu": 4898,
      "##bahçe": 4899,
      "bunları": 4900,
      "esk": 4901,
      "##tere": 4902,
      "ürünleri": 4903,
      "kaydet": 4904,
      "mur": 4905,
      "otomobil": 4906,
      "ez": 4907,
      "##eliğ": 4908,
      "##str": 4909,
      "ederim": 4910,
      "pop": 4911,
      "hüc": 4912,
      "##ulan": 4913,
      "teknoloji": 4914,
      "teb": 4915,
      "vergi": 4916,
      "meş": 4917,
      "konuşma": 4918,
      "naz": 4919,
      "##bay": 4920,
      "alanında": 4921,
      "aray": 4922,
      "tor": 4923,
      "ces": 4924,
      "sap": 4925,
      "seçenek": 4926,
      "doldur": 4927,
      "sayıda": 4928,
      "birisi": 4929,
      "çiçek": 4930,
      "piş": 4931,
      "örneğin": 4932,
      "tahmin": 4933,
      "askeri": 4934,
      "televizyon": 4935,
      "bağımsız": 4936,
      "##elerden": 4937,
      "standart": 4938,
      "##tiler": 4939,
      "##gaz": 4940,
      "yada": 4941,
      "çalışmaları": 4942,
      "##mayın": 4943,
      "belirtti": 4944,
      "kaldı": 4945,
      "akadem": 4946,
      "sonraki": 4947,
      "eğitimi": 4948,
      "taz": 4949,
      "kel": 4950,
      "bilir": 4951,
      "yürüt": 4952,
      "##ıştır": 4953,
      "finans": 4954,
      "yayım": 4955,
      "##eksiyon": 4956,
      "yaşında": 4957,
      "mühendis": 4958,
      "##ko": 4959,
      "##âr": 4960,
      "##dit": 4961,
      "yapılır": 4962,
      "##miyorum": 4963,
      "##ulması": 4964,
      "gazi": 4965,
      "##ilmiştir": 4966,
      "##umsuz": 4967,
      "ref": 4968,
      "konut": 4969,
      "plat": 4970,
      "sava": 4971,
      "sağlamak": 4972,
      "adres": 4973,
      "sim": 4974,
      "duvar": 4975,
      "harika": 4976,
      "yapmış": 4977,
      "politik": 4978,
      "modern": 4979,
      "şiddet": 4980,
      "olun": 4981,
      "sip": 4982,
      "35": 4983,
      "heyec": 4984,
      "öden": 4985,
      "faiz": 4986,
      "##yıl": 4987,
      "mor": 4988,
      "kişisel": 4989,
      "galat": 4990,
      "kırmızı": 4991,
      "sert": 4992,
      "##nek": 4993,
      "samsun": 4994,
      "##masından": 4995,
      "##sini": 4996,
      "madd": 4997,
      "başlat": 4998,
      "beşiktaş": 4999,
      "açılı": 5000,
      "i̇srail": 5001,
      "op": 5002,
      "ödeme": 5003,
      "nakl": 5004,
      "ce": 5005,
      "karşısında": 5006,
      "yarı": 5007,
      "fizik": 5008,
      "bankası": 5009,
      "arac": 5010,
      "atı": 5011,
      "##asaray": 5012,
      "##lıkları": 5013,
      "##tuk": 5014,
      "##imleri": 5015,
      "siyah": 5016,
      "şik": 5017,
      "huzur": 5018,
      "##siye": 5019,
      "şehit": 5020,
      "##yse": 5021,
      "i̇ran": 5022,
      "ilgi": 5023,
      "belirterek": 5024,
      "kesinlikle": 5025,
      "kulüb": 5026,
      "galatasaray": 5027,
      "##lığında": 5028,
      "##amet": 5029,
      "kalp": 5030,
      "tuz": 5031,
      "ir": 5032,
      "##lamış": 5033,
      "##artesi": 5034,
      "hafif": 5035,
      "evde": 5036,
      "çap": 5037,
      "kana": 5038,
      "ülkenin": 5039,
      "##dıklarını": 5040,
      "katıl": 5041,
      "arası": 5042,
      "köş": 5043,
      "tatlı": 5044,
      "##ımızda": 5045,
      "##dikten": 5046,
      "por": 5047,
      "##leyi": 5048,
      "kum": 5049,
      "##edim": 5050,
      "derneği": 5051,
      "aya": 5052,
      "güc": 5053,
      "fiyatları": 5054,
      "##sim": 5055,
      "fakültesi": 5056,
      "yerleştir": 5057,
      "red": 5058,
      "##ileş": 5059,
      "baskı": 5060,
      "##tt": 5061,
      "##tern": 5062,
      "gem": 5063,
      "##larımızın": 5064,
      "strate": 5065,
      "kürt": 5066,
      "alanda": 5067,
      "gösteren": 5068,
      "197": 5069,
      "sigorta": 5070,
      "paket": 5071,
      "şiş": 5072,
      "zev": 5073,
      "##yen": 5074,
      "##acağı": 5075,
      "##har": 5076,
      "sul": 5077,
      "##muyor": 5078,
      "bina": 5079,
      "new": 5080,
      "##emin": 5081,
      "yanıt": 5082,
      "gördüğ": 5083,
      "emniyet": 5084,
      "taşıma": 5085,
      "vücu": 5086,
      "akp": 5087,
      "yiy": 5088,
      "sivil": 5089,
      "kendisi": 5090,
      "stratej": 5091,
      "dis": 5092,
      "genellikle": 5093,
      "kılı": 5094,
      "##ä±": 5095,
      "sağlar": 5096,
      "##asından": 5097,
      "##lenmesi": 5098,
      "söylüyor": 5099,
      "##izasyon": 5100,
      "fenerbahçe": 5101,
      "##sü": 5102,
      "##laşı": 5103,
      "alına": 5104,
      "peş": 5105,
      "saha": 5106,
      "##şey": 5107,
      "basit": 5108,
      "yerinde": 5109,
      "prot": 5110,
      "##onya": 5111,
      "depr": 5112,
      "##edeki": 5113,
      "tecr": 5114,
      "uygulan": 5115,
      "konum": 5116,
      "##ze": 5117,
      "hata": 5118,
      "nedir": 5119,
      "##lediği": 5120,
      "orman": 5121,
      "amel": 5122,
      "##larımızı": 5123,
      "##layıp": 5124,
      "tanrı": 5125,
      "yaparak": 5126,
      "olduğuna": 5127,
      "tok": 5128,
      "##tarı": 5129,
      "bilgileri": 5130,
      "##esiz": 5131,
      "beden": 5132,
      "yah": 5133,
      "şeker": 5134,
      "takdir": 5135,
      "##ımızın": 5136,
      "bö": 5137,
      "hayatını": 5138,
      "müşteri": 5139,
      "##sas": 5140,
      "asıl": 5141,
      "ec": 5142,
      "##racat": 5143,
      "sorumlu": 5144,
      "dosya": 5145,
      "yılın": 5146,
      "olumsuz": 5147,
      "gönül": 5148,
      "şaş": 5149,
      "olmuştur": 5150,
      "##anlar": 5151,
      "ettir": 5152,
      "odası": 5153,
      "gr": 5154,
      "giden": 5155,
      "bür": 5156,
      "ale": 5157,
      "ikti": 5158,
      "kop": 5159,
      "öncelikle": 5160,
      "##undaki": 5161,
      "toplu": 5162,
      "kans": 5163,
      "gelin": 5164,
      "alarak": 5165,
      "edeb": 5166,
      "kala": 5167,
      "trab": 5168,
      "##rika": 5169,
      "düşür": 5170,
      "döneminde": 5171,
      "gizli": 5172,
      "##ülü": 5173,
      "kapalı": 5174,
      "çıkış": 5175,
      "i̇h": 5176,
      "dök": 5177,
      "##ündeki": 5178,
      "işbir": 5179,
      "yapmaya": 5180,
      "45": 5181,
      "peygam": 5182,
      "##20": 5183,
      "öne": 5184,
      "ge": 5185,
      "fab": 5186,
      "sona": 5187,
      "2006": 5188,
      "##tepe": 5189,
      "yolc": 5190,
      "musun": 5191,
      "bec": 5192,
      "reh": 5193,
      "kral": 5194,
      "tutar": 5195,
      "2011": 5196,
      "##ınızda": 5197,
      "sağlayan": 5198,
      "kong": 5199,
      "yapım": 5200,
      "##emek": 5201,
      "çelik": 5202,
      "projesi": 5203,
      "korun": 5204,
      "bet": 5205,
      "önüne": 5206,
      "almış": 5207,
      "##abet": 5208,
      "##laşma": 5209,
      "kanı": 5210,
      "##esindeki": 5211,
      "cinsel": 5212,
      "##lav": 5213,
      "davranış": 5214,
      "##ps": 5215,
      "##imler": 5216,
      "namaz": 5217,
      "işç": 5218,
      "hepsi": 5219,
      "kavram": 5220,
      "i̇m": 5221,
      "hakkı": 5222,
      "##yet": 5223,
      "göç": 5224,
      "##lendi": 5225,
      "##liğin": 5226,
      "80": 5227,
      "i̇ngiltere": 5228,
      "##nam": 5229,
      "şer": 5230,
      "##lal": 5231,
      "##liğe": 5232,
      "lez": 5233,
      "##i̇r": 5234,
      "zorun": 5235,
      "##liğinde": 5236,
      "##iri": 5237,
      "yalan": 5238,
      "hayata": 5239,
      "##emey": 5240,
      "feder": 5241,
      "##form": 5242,
      "##mür": 5243,
      "90": 5244,
      "fransa": 5245,
      "mill": 5246,
      "##maktan": 5247,
      "cad": 5248,
      "yarın": 5249,
      "vazgeç": 5250,
      "##anet": 5251,
      "##amı": 5252,
      "##inizde": 5253,
      "online": 5254,
      "sipar": 5255,
      "bende": 5256,
      "alıp": 5257,
      "##diklerini": 5258,
      "sermay": 5259,
      "##aza": 5260,
      "##başı": 5261,
      "adalet": 5262,
      "ucuz": 5263,
      "öy": 5264,
      "hüs": 5265,
      "sahn": 5266,
      "kendisini": 5267,
      "koruma": 5268,
      "##sk": 5269,
      "arab": 5270,
      "yalnızca": 5271,
      "lin": 5272,
      "##maş": 5273,
      "peygamber": 5274,
      "trabzon": 5275,
      "##dat": 5276,
      "##raman": 5277,
      "yürüy": 5278,
      "ihti": 5279,
      "##elerinden": 5280,
      "yılda": 5281,
      "gide": 5282,
      "duyur": 5283,
      "kullanarak": 5284,
      "sorunu": 5285,
      "yetiştir": 5286,
      "##rek": 5287,
      "##ledi": 5288,
      "eşit": 5289,
      "bom": 5290,
      "aşağıdaki": 5291,
      "kasa": 5292,
      "##elt": 5293,
      "yıllarda": 5294,
      "tiyat": 5295,
      "05": 5296,
      "saf": 5297,
      "arttır": 5298,
      "##layın": 5299,
      "##tey": 5300,
      "etmeye": 5301,
      "başkanlığı": 5302,
      "olumlu": 5303,
      "yaşındaki": 5304,
      "##emmel": 5305,
      "gören": 5306,
      "##kk": 5307,
      "performans": 5308,
      "festiv": 5309,
      "yılmaz": 5310,
      "taşın": 5311,
      "##malar": 5312,
      "içi": 5313,
      "soğuk": 5314,
      "i̇ngilizce": 5315,
      "saygı": 5316,
      "##lerim": 5317,
      "##zet": 5318,
      "şen": 5319,
      "atan": 5320,
      "biliyorum": 5321,
      "##elerle": 5322,
      "aşırı": 5323,
      "kıl": 5324,
      "tören": 5325,
      "##sinin": 5326,
      "km": 5327,
      "herkesin": 5328,
      "nur": 5329,
      "etraf": 5330,
      "transfer": 5331,
      "##ebilecek": 5332,
      "70": 5333,
      "kale": 5334,
      "ortalama": 5335,
      "gerekmektedir": 5336,
      "edebil": 5337,
      "azal": 5338,
      "##öğ": 5339,
      "ışık": 5340,
      "yazılım": 5341,
      "edebiyat": 5342,
      "sonucunda": 5343,
      "blo": 5344,
      "üniversite": 5345,
      "geçiş": 5346,
      "mükemmel": 5347,
      "##ly": 5348,
      "##yip": 5349,
      "mod": 5350,
      "geçtiğimiz": 5351,
      "kahraman": 5352,
      "takımı": 5353,
      "yüzyıl": 5354,
      "##haba": 5355,
      "kadınlar": 5356,
      "kazandır": 5357,
      "kli": 5358,
      "kağı": 5359,
      "##lığının": 5360,
      "##ons": 5361,
      "edip": 5362,
      "insanın": 5363,
      "boya": 5364,
      "##gal": 5365,
      "##ildiği": 5366,
      "##uç": 5367,
      "##ğan": 5368,
      "tır": 5369,
      "##irken": 5370,
      "avuk": 5371,
      "çalışmalar": 5372,
      "hac": 5373,
      "##mesinin": 5374,
      "tavsiye": 5375,
      "##bis": 5376,
      "dakik": 5377,
      "sik": 5378,
      "sipariş": 5379,
      "piyasa": 5380,
      "hanım": 5381,
      "tiyatro": 5382,
      "göl": 5383,
      "oranı": 5384,
      "##ıma": 5385,
      "##arken": 5386,
      "yasak": 5387,
      "demokras": 5388,
      "merhaba": 5389,
      "zira": 5390,
      "misin": 5391,
      "çor": 5392,
      "##ekim": 5393,
      "##tuğ": 5394,
      "başlar": 5395,
      "hi": 5396,
      "yola": 5397,
      "yas": 5398,
      "gündem": 5399,
      "##sizlik": 5400,
      "klas": 5401,
      "##car": 5402,
      "kaçır": 5403,
      "kahv": 5404,
      "arap": 5405,
      "savunma": 5406,
      "platform": 5407,
      "ww": 5408,
      "soruştur": 5409,
      "gelenek": 5410,
      "##no": 5411,
      "sanki": 5412,
      "36": 5413,
      "##ersin": 5414,
      "üm": 5415,
      "tren": 5416,
      "grub": 5417,
      "trafik": 5418,
      "##larındaki": 5419,
      "##lata": 5420,
      "olmasına": 5421,
      "##beri": 5422,
      "ediyoruz": 5423,
      "cer": 5424,
      "##he": 5425,
      "isimli": 5426,
      "yapıldı": 5427,
      "futbolcu": 5428,
      "doğan": 5429,
      "##diğin": 5430,
      "##iyiz": 5431,
      "sitemiz": 5432,
      "öncesi": 5433,
      "01": 5434,
      "edilmiş": 5435,
      "kamp": 5436,
      "vit": 5437,
      "yatak": 5438,
      "##hane": 5439,
      "##lanmıştır": 5440,
      "günlerde": 5441,
      "partisi": 5442,
      "kriz": 5443,
      "memur": 5444,
      "tanış": 5445,
      "nüfus": 5446,
      "##emiş": 5447,
      "elektronik": 5448,
      "aks": 5449,
      "##ılmıştır": 5450,
      "##elidir": 5451,
      "taki": 5452,
      "196": 5453,
      "sultan": 5454,
      "ölçü": 5455,
      "kişilik": 5456,
      "önümüz": 5457,
      "port": 5458,
      "##ahat": 5459,
      "elbet": 5460,
      "##cam": 5461,
      "fel": 5462,
      "##lenmiş": 5463,
      "##anan": 5464,
      "yararlan": 5465,
      "mic": 5466,
      "arkada": 5467,
      "servisi": 5468,
      "##antaj": 5469,
      "akıllı": 5470,
      "çıkıyor": 5471,
      "i̇lçe": 5472,
      "##cusu": 5473,
      "##lerinizi": 5474,
      "belirtilen": 5475,
      "##ii": 5476,
      "##orm": 5477,
      "##latı": 5478,
      "##iyorlar": 5479,
      "##liğine": 5480,
      "if": 5481,
      "cem": 5482,
      "##iyordu": 5483,
      "konus": 5484,
      "giren": 5485,
      "##book": 5486,
      "hd": 5487,
      "dam": 5488,
      "sü": 5489,
      "diren": 5490,
      "nden": 5491,
      "meydan": 5492,
      "sürede": 5493,
      "keyif": 5494,
      "amerikan": 5495,
      "şar": 5496,
      "##iği": 5497,
      "yaygın": 5498,
      "##ogle": 5499,
      "##cilik": 5500,
      "anlamda": 5501,
      "##ilebilir": 5502,
      "mel": 5503,
      "gücü": 5504,
      "düşünüyorum": 5505,
      "www": 5506,
      "kapas": 5507,
      "düzenlem": 5508,
      "buy": 5509,
      "32": 5510,
      "##ros": 5511,
      "##lardaki": 5512,
      "yaşlı": 5513,
      "öngör": 5514,
      "mezun": 5515,
      "civ": 5516,
      "bahse": 5517,
      "ayı": 5518,
      "kızı": 5519,
      "rez": 5520,
      "biçimde": 5521,
      "lu": 5522,
      "##ındır": 5523,
      "##mur": 5524,
      "##hp": 5525,
      "##ayıf": 5526,
      "edi": 5527,
      "süresi": 5528,
      "hus": 5529,
      "ameliyat": 5530,
      "kayb": 5531,
      "bilinen": 5532,
      "google": 5533,
      "durdur": 5534,
      "zevk": 5535,
      "karıştır": 5536,
      "geçti": 5537,
      "##ham": 5538,
      "olmadan": 5539,
      "zayıf": 5540,
      "endiş": 5541,
      "##isinden": 5542,
      "düşman": 5543,
      "##iyer": 5544,
      "site": 5545,
      "birden": 5546,
      "va": 5547,
      "##desi": 5548,
      "verecek": 5549,
      "##ner": 5550,
      "##urken": 5551,
      "odak": 5552,
      "nedeni": 5553,
      "katıldı": 5554,
      "##yer": 5555,
      "ima": 5556,
      "mimar": 5557,
      "##nu": 5558,
      "mahallesi": 5559,
      "##uldu": 5560,
      "dizi": 5561,
      "şub": 5562,
      "con": 5563,
      "##ry": 5564,
      "uygula": 5565,
      "##tis": 5566,
      "##dy": 5567,
      "otobüs": 5568,
      "##uyorum": 5569,
      "birini": 5570,
      "olacağını": 5571,
      "##üstü": 5572,
      "##âh": 5573,
      "ürünler": 5574,
      "doğrudan": 5575,
      "güvenli": 5576,
      "kus": 5577,
      "09": 5578,
      "uyan": 5579,
      "istediğiniz": 5580,
      "##ho": 5581,
      "yav": 5582,
      "##yası": 5583,
      "ide": 5584,
      "neredeyse": 5585,
      "birim": 5586,
      "rest": 5587,
      "suyu": 5588,
      "2010": 5589,
      "edeceğ": 5590,
      "sebeb": 5591,
      "umut": 5592,
      "filmi": 5593,
      "harca": 5594,
      "gelmiş": 5595,
      "aktif": 5596,
      "kitabı": 5597,
      "##ciler": 5598,
      "dahi": 5599,
      "yaşıyor": 5600,
      "sahiptir": 5601,
      "açıkladı": 5602,
      "##isiyle": 5603,
      "çab": 5604,
      "fransız": 5605,
      "ondan": 5606,
      "gerektir": 5607,
      "vücut": 5608,
      "##dağ": 5609,
      "etmektedir": 5610,
      "ism": 5611,
      "##irler": 5612,
      "sk": 5613,
      "##landığı": 5614,
      "alk": 5615,
      "murat": 5616,
      "yüzünden": 5617,
      "##alim": 5618,
      "##mamış": 5619,
      "ortadan": 5620,
      "02": 5621,
      "van": 5622,
      "gur": 5623,
      "kök": 5624,
      "önlem": 5625,
      "çoğun": 5626,
      "aca": 5627,
      "çocukların": 5628,
      "tablo": 5629,
      "ex": 5630,
      "kaya": 5631,
      "##süz": 5632,
      "buradan": 5633,
      "olmasını": 5634,
      "üzerindeki": 5635,
      "üstün": 5636,
      "##liler": 5637,
      "avantaj": 5638,
      "ndan": 5639,
      "mesel": 5640,
      "anah": 5641,
      "jap": 5642,
      "acil": 5643,
      "##cil": 5644,
      "koç": 5645,
      "ters": 5646,
      "hasan": 5647,
      "vek": 5648,
      "metin": 5649,
      "geçerli": 5650,
      "çaba": 5651,
      "##erseniz": 5652,
      "vakit": 5653,
      "duyg": 5654,
      "alım": 5655,
      "hz": 5656,
      "şef": 5657,
      "##cının": 5658,
      "rum": 5659,
      "euro": 5660,
      "gali": 5661,
      "adını": 5662,
      "cilt": 5663,
      "sanatçı": 5664,
      "zir": 5665,
      "win": 5666,
      "yed": 5667,
      "ağaç": 5668,
      "##kale": 5669,
      "söylen": 5670,
      "temin": 5671,
      "kayna": 5672,
      "haft": 5673,
      "##yap": 5674,
      "ifad": 5675,
      "##ersiz": 5676,
      "##ron": 5677,
      "##sinde": 5678,
      "detaylı": 5679,
      "##ımın": 5680,
      "kod": 5681,
      "##lır": 5682,
      "2005": 5683,
      "adana": 5684,
      "anlayış": 5685,
      "zih": 5686,
      "taban": 5687,
      "##landa": 5688,
      "çeken": 5689,
      "kaza": 5690,
      "imkan": 5691,
      "##sında": 5692,
      "istih": 5693,
      "krit": 5694,
      "cm": 5695,
      "bekliyor": 5696,
      "ihtiyacı": 5697,
      "çak": 5698,
      "önceden": 5699,
      "etkisi": 5700,
      "kişilerin": 5701,
      "buz": 5702,
      "kaydetti": 5703,
      "##zi": 5704,
      "##ısız": 5705,
      "karan": 5706,
      "##eral": 5707,
      "savaşı": 5708,
      "##iyan": 5709,
      "komp": 5710,
      "##fat": 5711,
      "##urum": 5712,
      "##erv": 5713,
      "##memek": 5714,
      "cuma": 5715,
      "nitelik": 5716,
      "olduğumuz": 5717,
      "ısı": 5718,
      "harit": 5719,
      "anlamına": 5720,
      "##üny": 5721,
      "öt": 5722,
      "derec": 5723,
      "bakış": 5724,
      "yerini": 5725,
      "getiren": 5726,
      "##öğret": 5727,
      "33": 5728,
      "##ağı": 5729,
      "diyerek": 5730,
      "ülkede": 5731,
      "seyahat": 5732,
      "itir": 5733,
      "işle": 5734,
      "bl": 5735,
      "eb": 5736,
      "maliyet": 5737,
      "##rahim": 5738,
      "yıldırım": 5739,
      "i̇kinci": 5740,
      "bask": 5741,
      "rakam": 5742,
      "##imden": 5743,
      "##ire": 5744,
      "çıkarı": 5745,
      "sorgu": 5746,
      "depo": 5747,
      "##ws": 5748,
      "##abilecek": 5749,
      "dokun": 5750,
      "edebilir": 5751,
      "##dığına": 5752,
      "etmesi": 5753,
      "işin": 5754,
      "elbette": 5755,
      "sağla": 5756,
      "günümüzde": 5757,
      "ekonomi": 5758,
      "kiralama": 5759,
      "imk": 5760,
      "pil": 5761,
      "fatih": 5762,
      "rü": 5763,
      "mali": 5764,
      "restor": 5765,
      "hakları": 5766,
      "bugüne": 5767,
      "##inal": 5768,
      "rece": 5769,
      "##layıcı": 5770,
      "##memiz": 5771,
      "misaf": 5772,
      "##his": 5773,
      "otomatik": 5774,
      "kullanımı": 5775,
      "veri": 5776,
      "ihracat": 5777,
      "kendilerine": 5778,
      "ney": 5779,
      "ilgilen": 5780,
      "kısmı": 5781,
      "##ıyoruz": 5782,
      "gidip": 5783,
      "şikayet": 5784,
      "bölgede": 5785,
      "gazetec": 5786,
      "şun": 5787,
      "hoca": 5788,
      "diyen": 5789,
      "##lığıyla": 5790,
      "istik": 5791,
      "##masıyla": 5792,
      "gitti": 5793,
      "mesaf": 5794,
      "özellikleri": 5795,
      "köpr": 5796,
      "müdahale": 5797,
      "bulunma": 5798,
      "verildi": 5799,
      "deng": 5800,
      "##hat": 5801,
      "sö": 5802,
      "albüm": 5803,
      "2004": 5804,
      "ağrı": 5805,
      "ticari": 5806,
      "belirli": 5807,
      "avukat": 5808,
      "direktör": 5809,
      "birik": 5810,
      "hakim": 5811,
      "farkında": 5812,
      "##ayla": 5813,
      "bahset": 5814,
      "##udi": 5815,
      "çerçevesinde": 5816,
      "ayrıntı": 5817,
      "posta": 5818,
      "##rim": 5819,
      "##çuk": 5820,
      "##meyecek": 5821,
      "hazırlık": 5822,
      "he": 5823,
      "##çiler": 5824,
      "cas": 5825,
      "seks": 5826,
      "hit": 5827,
      "dedim": 5828,
      "cumhuriyeti": 5829,
      "pkk": 5830,
      "vb": 5831,
      "dünyaya": 5832,
      "büny": 5833,
      "başlangı": 5834,
      "##çak": 5835,
      "bitk": 5836,
      "##tın": 5837,
      "ep": 5838,
      "dekor": 5839,
      "##her": 5840,
      "olanlar": 5841,
      "cüm": 5842,
      "yıllar": 5843,
      "kör": 5844,
      "##amaz": 5845,
      "tehdit": 5846,
      "kampanya": 5847,
      "tipi": 5848,
      "##ulur": 5849,
      "deney": 5850,
      "kanunu": 5851,
      "sağlayacak": 5852,
      "##lerimizi": 5853,
      "tecrüb": 5854,
      "akl": 5855,
      "diler": 5856,
      "konya": 5857,
      "kurban": 5858,
      "##ti̇": 5859,
      "biy": 5860,
      "hediye": 5861,
      "##ınar": 5862,
      "verilm": 5863,
      "üs": 5864,
      "içerik": 5865,
      "danışman": 5866,
      "##mediği": 5867,
      "##aka": 5868,
      "final": 5869,
      "##ds": 5870,
      "bağış": 5871,
      "ert": 5872,
      "##köy": 5873,
      "uns": 5874,
      "ade": 5875,
      "konfer": 5876,
      "giderek": 5877,
      "##lanarak": 5878,
      "pozisyon": 5879,
      "recep": 5880,
      "toplumsal": 5881,
      "katılan": 5882,
      "petrol": 5883,
      "pren": 5884,
      "modelleri": 5885,
      "ettiğini": 5886,
      "##ation": 5887,
      "analiz": 5888,
      "ajans": 5889,
      "zeytin": 5890,
      "sistemleri": 5891,
      "olduğundan": 5892,
      "sta": 5893,
      "##kel": 5894,
      "haberleri": 5895,
      "hin": 5896,
      "sorumluluk": 5897,
      "doğrult": 5898,
      "##ator": 5899,
      "özelliği": 5900,
      "istedi": 5901,
      "şif": 5902,
      "usta": 5903,
      "sunuyor": 5904,
      "iyileş": 5905,
      "yerli": 5906,
      "kulak": 5907,
      "metre": 5908,
      "dip": 5909,
      "##ulmuş": 5910,
      "yasal": 5911,
      "anlama": 5912,
      "300": 5913,
      "onunla": 5914,
      "becer": 5915,
      "terk": 5916,
      "34": 5917,
      "mısır": 5918,
      "##ıklı": 5919,
      "birinin": 5920,
      "##yüz": 5921,
      "binlerce": 5922,
      "sağlaya": 5923,
      "acaba": 5924,
      "yapabilir": 5925,
      "altern": 5926,
      "ri": 5927,
      "sonuna": 5928,
      "sevgil": 5929,
      "##tacak": 5930,
      "##fı": 5931,
      "jan": 5932,
      "gelip": 5933,
      "köpek": 5934,
      "ayakka": 5935,
      "kulüp": 5936,
      "söyleyen": 5937,
      "anayasa": 5938,
      "duruş": 5939,
      "iptal": 5940,
      "i̇nternet": 5941,
      "face": 5942,
      "heyecan": 5943,
      "dışişleri": 5944,
      "ofis": 5945,
      "başlıyor": 5946,
      "##kar": 5947,
      "vad": 5948,
      "eriş": 5949,
      "falan": 5950,
      "##larımıza": 5951,
      "##erler": 5952,
      "önümüzdeki": 5953,
      "##bal": 5954,
      "rast": 5955,
      "iktidar": 5956,
      "08": 5957,
      "##mail": 5958,
      "yapılmış": 5959,
      "hapis": 5960,
      "##10": 5961,
      "kayıp": 5962,
      "serg": 5963,
      "##düğünü": 5964,
      "erz": 5965,
      "kred": 5966,
      "istek": 5967,
      "##ud": 5968,
      "##hn": 5969,
      "sinema": 5970,
      "anti": 5971,
      "olası": 5972,
      "est": 5973,
      "moda": 5974,
      "vermiş": 5975,
      "almaya": 5976,
      "müşteriler": 5977,
      "##diniz": 5978,
      "##erken": 5979,
      "##ünüyor": 5980,
      "düzenli": 5981,
      "öte": 5982,
      "sinir": 5983,
      "diyar": 5984,
      "yü": 5985,
      "ölü": 5986,
      "parçası": 5987,
      "sakin": 5988,
      "eklen": 5989,
      "kamera": 5990,
      "okuy": 5991,
      "##ong": 5992,
      "cumhurbaşkan": 5993,
      "düştü": 5994,
      "##land": 5995,
      "gençlik": 5996,
      "mutfak": 5997,
      "hayatı": 5998,
      "açıkla": 5999,
      "onur": 6000,
      "açılış": 6001,
      "fu": 6002,
      "zek": 6003,
      "##lıkta": 6004,
      "eh": 6005,
      "dey": 6006,
      "2007": 6007,
      "içeren": 6008,
      "gelişim": 6009,
      "##ebi": 6010,
      "##vik": 6011,
      "alternatif": 6012,
      "çet": 6013,
      "getirdi": 6014,
      "benimle": 6015,
      "kıya": 6016,
      "i̇dar": 6017,
      "duyar": 6018,
      "kapasit": 6019,
      "##ata": 6020,
      "yayınları": 6021,
      "yenil": 6022,
      "03": 6023,
      "##ino": 6024,
      "2000": 6025,
      "bis": 6026,
      "insanları": 6027,
      "kaymak": 6028,
      "yürür": 6029,
      "tayyip": 6030,
      "usul": 6031,
      "çağır": 6032,
      "hazırlanan": 6033,
      "kalma": 6034,
      "sabit": 6035,
      "arkadaşlar": 6036,
      "ja": 6037,
      "##üyle": 6038,
      "içindeki": 6039,
      "ince": 6040,
      "i̇brahim": 6041,
      "istedik": 6042,
      "görsel": 6043,
      "bilimsel": 6044,
      "bununla": 6045,
      "##ığ": 6046,
      "yumur": 6047,
      "mir": 6048,
      "bozuk": 6049,
      "##zu": 6050,
      "koc": 6051,
      "tit": 6052,
      "uyum": 6053,
      "i̇lç": 6054,
      "kalın": 6055,
      "ilçesinde": 6056,
      "yaparken": 6057,
      "i̇span": 6058,
      "ins": 6059,
      "bölgesi": 6060,
      "babam": 6061,
      "işler": 6062,
      "bölgesinde": 6063,
      "taşıyan": 6064,
      "olanak": 6065,
      "ülkemizde": 6066,
      "bula": 6067,
      "geb": 6068,
      "##qu": 6069,
      "##istin": 6070,
      "##ayım": 6071,
      "göğ": 6072,
      "evren": 6073,
      "oyunları": 6074,
      "boğaz": 6075,
      "suy": 6076,
      "##türk": 6077,
      "özen": 6078,
      "tarihli": 6079,
      "süren": 6080,
      "##arında": 6081,
      "##onu": 6082,
      "sağlam": 6083,
      "doğrultusunda": 6084,
      "verme": 6085,
      "##doğu": 6086,
      "zaf": 6087,
      "kesim": 6088,
      "##ond": 6089,
      "yapımı": 6090,
      "olduğunuz": 6091,
      "araz": 6092,
      "dans": 6093,
      "tw": 6094,
      "kanıt": 6095,
      "örgütü": 6096,
      "denetim": 6097,
      "##işi": 6098,
      "saray": 6099,
      "oğlu": 6100,
      "güvenilir": 6101,
      "başken": 6102,
      "ayk": 6103,
      "nün": 6104,
      "çalıştır": 6105,
      "kalite": 6106,
      "##öğretim": 6107,
      "zamanı": 6108,
      "organizasyon": 6109,
      "cok": 6110,
      "##ht": 6111,
      "küresel": 6112,
      "endü": 6113,
      "bilmiyorum": 6114,
      "kurulan": 6115,
      "##tion": 6116,
      "##lor": 6117,
      "##makla": 6118,
      "hastanesi": 6119,
      "##embe": 6120,
      "##ýr": 6121,
      "üyeleri": 6122,
      "pi": 6123,
      "hüseyin": 6124,
      "süreci": 6125,
      "karşılık": 6126,
      "şa": 6127,
      "mavi": 6128,
      "kurumsal": 6129,
      "rüya": 6130,
      "yur": 6131,
      "kılıç": 6132,
      "kurumu": 6133,
      "bekle": 6134,
      "dönüştür": 6135,
      "##eğe": 6136,
      "sonuçları": 6137,
      "bilet": 6138,
      "ömer": 6139,
      "şimd": 6140,
      "elbis": 6141,
      "turk": 6142,
      "kere": 6143,
      "##yken": 6144,
      "##isin": 6145,
      "##tedir": 6146,
      "selam": 6147,
      "ağz": 6148,
      "geçici": 6149,
      "kimlik": 6150,
      "geril": 6151,
      "fiyatı": 6152,
      "işlemi": 6153,
      "##eğini": 6154,
      "##emen": 6155,
      "vi": 6156,
      "zamanlarda": 6157,
      "oldukları": 6158,
      "ödem": 6159,
      "izley": 6160,
      "evlen": 6161,
      "dikkate": 6162,
      "konak": 6163,
      "##dün": 6164,
      "ufak": 6165,
      "gidiyor": 6166,
      "şaşır": 6167,
      "ligi": 6168,
      "zorunlu": 6169,
      "facebook": 6170,
      "maden": 6171,
      "kişiye": 6172,
      "büyüm": 6173,
      "mesela": 6174,
      "kanser": 6175,
      "##düz": 6176,
      "dij": 6177,
      "yetkili": 6178,
      "##teşem": 6179,
      "görünüyor": 6180,
      "##uluyor": 6181,
      "##th": 6182,
      "##celi": 6183,
      "şık": 6184,
      "kimi": 6185,
      "tanıtım": 6186,
      "kalır": 6187,
      "06": 6188,
      "temizlik": 6189,
      "##bi̇": 6190,
      "devletin": 6191,
      "bedel": 6192,
      "tepki": 6193,
      "##tl": 6194,
      "tun": 6195,
      "tanın": 6196,
      "##dil": 6197,
      "olağan": 6198,
      "yör": 6199,
      "müsa": 6200,
      "gözlem": 6201,
      "gazete": 6202,
      "ramaz": 6203,
      "önemlidir": 6204,
      "lir": 6205,
      "muhteşem": 6206,
      "##luluğu": 6207,
      "hassas": 6208,
      "##rem": 6209,
      "##iklet": 6210,
      "set": 6211,
      "yönlendir": 6212,
      "55": 6213,
      "benden": 6214,
      "yolcu": 6215,
      "muham": 6216,
      "kilis": 6217,
      "2003": 6218,
      "ettim": 6219,
      "dönemi": 6220,
      "çeki": 6221,
      "rab": 6222,
      "tb": 6223,
      "2009": 6224,
      "##bilmek": 6225,
      "##cisi": 6226,
      "2008": 6227,
      "dernek": 6228,
      "##liğinin": 6229,
      "şirketi": 6230,
      "fık": 6231,
      "2002": 6232,
      "değişim": 6233,
      "teşvik": 6234,
      "##acağız": 6235,
      "yedi": 6236,
      "tartışma": 6237,
      "metal": 6238,
      "inşaat": 6239,
      "adamı": 6240,
      "##lacağı": 6241,
      "##stit": 6242,
      "şeyin": 6243,
      "gitmek": 6244,
      "vir": 6245,
      "07": 6246,
      "kadının": 6247,
      "sağlan": 6248,
      "mit": 6249,
      "radyo": 6250,
      "büyü": 6251,
      "48": 6252,
      "renkli": 6253,
      "uğraş": 6254,
      "maçı": 6255,
      "##ilerden": 6256,
      "lezzet": 6257,
      "geleceğ": 6258,
      "htt": 6259,
      "üretic": 6260,
      "kendilerini": 6261,
      "##usunu": 6262,
      "koor": 6263,
      "hızla": 6264,
      "bı": 6265,
      "değeri": 6266,
      "daire": 6267,
      "##jen": 6268,
      "süs": 6269,
      "sağlığı": 6270,
      "dijital": 6271,
      "nefes": 6272,
      "ob": 6273,
      "yumurta": 6274,
      "çalışması": 6275,
      "ib": 6276,
      "yarım": 6277,
      "refer": 6278,
      "##laşıyor": 6279,
      "toz": 6280,
      "gerekç": 6281,
      "kanunun": 6282,
      "lok": 6283,
      "kendimi": 6284,
      "sendik": 6285,
      "misafir": 6286,
      "mikro": 6287,
      "kalem": 6288,
      "##leriniz": 6289,
      "konuk": 6290,
      "aşağıda": 6291,
      "ayrıl": 6292,
      "demektir": 6293,
      "sebebi": 6294,
      "##bel": 6295,
      "öğrencilerin": 6296,
      "desteği": 6297,
      "##müyor": 6298,
      "##pe": 6299,
      "lab": 6300,
      "muhtem": 6301,
      "##oyu": 6302,
      "babası": 6303,
      "rekabet": 6304,
      "38": 6305,
      "değilim": 6306,
      "çıkacak": 6307,
      "görüşmeler": 6308,
      "##imizden": 6309,
      "alınması": 6310,
      "bulundur": 6311,
      "geldiği": 6312,
      "coğraf": 6313,
      "tedbir": 6314,
      "04": 6315,
      "##i̇m": 6316,
      "tanıt": 6317,
      "##biliriz": 6318,
      "##lıdır": 6319,
      "##sit": 6320,
      "mhp": 6321,
      "eşi": 6322,
      "açılan": 6323,
      "##sını": 6324,
      "dua": 6325,
      "kültürel": 6326,
      "hücr": 6327,
      "rüz": 6328,
      "##allah": 6329,
      "ismi": 6330,
      "kapan": 6331,
      "anlaşı": 6332,
      "bm": 6333,
      "kalb": 6334,
      "##rom": 6335,
      "niyet": 6336,
      "dini": 6337,
      "görülen": 6338,
      "yangın": 6339,
      "##inda": 6340,
      "şube": 6341,
      "37": 6342,
      "görme": 6343,
      "halkın": 6344,
      "sevgi": 6345,
      "değerlendirme": 6346,
      "sevgili": 6347,
      "uzat": 6348,
      "ilginç": 6349,
      "klasik": 6350,
      "##eliği": 6351,
      "##anda": 6352,
      "##leşme": 6353,
      "alındı": 6354,
      "istediği": 6355,
      "##biliyor": 6356,
      "ekley": 6357,
      "gerçekleştirilen": 6358,
      "donan": 6359,
      "ani": 6360,
      "##mesiyle": 6361,
      "mür": 6362,
      "evden": 6363,
      "dolaş": 6364,
      "masa": 6365,
      "etkilen": 6366,
      "mini": 6367,
      "##ff": 6368,
      "##lemeye": 6369,
      "uyarı": 6370,
      "yurtdı": 6371,
      "ran": 6372,
      "genelde": 6373,
      "##diğine": 6374,
      "birer": 6375,
      "güzellik": 6376,
      "nakliyat": 6377,
      "yaşaya": 6378,
      "##iner": 6379,
      "##are": 6380,
      "sizler": 6381,
      "eleman": 6382,
      "bilinç": 6383,
      "yeme": 6384,
      "ürünü": 6385,
      "etki": 6386,
      "çanak": 6387,
      "sekret": 6388,
      "anahtar": 6389,
      "konferans": 6390,
      "paşa": 6391,
      "tasarımı": 6392,
      "##ğını": 6393,
      "uygulaması": 6394,
      "ca": 6395,
      "okuma": 6396,
      "##bey": 6397,
      "gösteriyor": 6398,
      "girdi": 6399,
      "görür": 6400,
      "yumuş": 6401,
      "malzeme": 6402,
      "gözalt": 6403,
      "demokratik": 6404,
      "##enk": 6405,
      "halı": 6406,
      "kağıt": 6407,
      "blog": 6408,
      "ediliyor": 6409,
      "##duğumuz": 6410,
      "üstüne": 6411,
      "çağr": 6412,
      "##emesi": 6413,
      "yel": 6414,
      "kadınların": 6415,
      "lev": 6416,
      "anı": 6417,
      "söylemek": 6418,
      "belgesi": 6419,
      "esn": 6420,
      "ulaştır": 6421,
      "idi": 6422,
      "i̇liş": 6423,
      "popüler": 6424,
      "başlangıç": 6425,
      "bütç": 6426,
      "##les": 6427,
      "kafa": 6428,
      "##cağına": 6429,
      "sün": 6430,
      "makam": 6431,
      "##ınma": 6432,
      "pap": 6433,
      "##vel": 6434,
      "i̇şlet": 6435,
      "sahib": 6436,
      "taraftar": 6437,
      "amaçlı": 6438,
      "kurs": 6439,
      "##i̇k": 6440,
      "seyir": 6441,
      "kıyafet": 6442,
      "aldım": 6443,
      "##şet": 6444,
      "denk": 6445,
      "bilgilendir": 6446,
      "sevin": 6447,
      "yaşadığı": 6448,
      "##ksiyon": 6449,
      "ilişkiler": 6450,
      "takv": 6451,
      "yunanistan": 6452,
      "##bank": 6453,
      "ramazan": 6454,
      "hayatta": 6455,
      "iken": 6456,
      "tali": 6457,
      "##nik": 6458,
      "altyap": 6459,
      "dalga": 6460,
      "sıf": 6461,
      "##mara": 6462,
      "boyu": 6463,
      "yedek": 6464,
      "azalt": 6465,
      "itibariyle": 6466,
      "mün": 6467,
      "sıv": 6468,
      "şük": 6469,
      "havuz": 6470,
      "malat": 6471,
      "birşey": 6472,
      "##asi": 6473,
      "kavuş": 6474,
      "##leyici": 6475,
      "istiyoruz": 6476,
      "geleneksel": 6477,
      "app": 6478,
      "olmayacak": 6479,
      "çekil": 6480,
      "günün": 6481,
      "##di̇": 6482,
      "kullanmak": 6483,
      "yaptıkları": 6484,
      "sir": 6485,
      "darbe": 6486,
      "enflasyon": 6487,
      "yağmur": 6488,
      "##kur": 6489,
      "kullanılır": 6490,
      "kulübü": 6491,
      "stat": 6492,
      "75": 6493,
      "unsur": 6494,
      "almaktadır": 6495,
      "kilomet": 6496,
      "edilmiştir": 6497,
      "tom": 6498,
      "sermaye": 6499,
      "görevi": 6500,
      "dakikada": 6501,
      "dür": 6502,
      "44": 6503,
      "teşki": 6504,
      "düğün": 6505,
      "uçuş": 6506,
      "65": 6507,
      "kayded": 6508,
      "vah": 6509,
      "çocuğun": 6510,
      "##tanın": 6511,
      "nı": 6512,
      "seçen": 6513,
      "ederken": 6514,
      "işlemleri": 6515,
      "birbirinden": 6516,
      "##uyucu": 6517,
      "aley": 6518,
      "diyarbak": 6519,
      "##okul": 6520,
      "##leri̇": 6521,
      "kays": 6522,
      "koordin": 6523,
      "##bon": 6524,
      "yolunda": 6525,
      "deprem": 6526,
      "##distan": 6527,
      "fonksiyon": 6528,
      "mate": 6529,
      "söyler": 6530,
      "##luluğ": 6531,
      "oranında": 6532,
      "##dukları": 6533,
      "kâ": 6534,
      "tarihleri": 6535,
      "bulmak": 6536,
      "enstit": 6537,
      "tepk": 6538,
      "tim": 6539,
      "yenilik": 6540,
      "##laj": 6541,
      "##ick": 6542,
      "konser": 6543,
      "komş": 6544,
      "kartı": 6545,
      "##arya": 6546,
      "evlilik": 6547,
      "sözleşme": 6548,
      "ayakkabı": 6549,
      "planı": 6550,
      "uğur": 6551,
      "##ment": 6552,
      "yürüyüş": 6553,
      "dilek": 6554,
      "##gü": 6555,
      "avust": 6556,
      "##bb": 6557,
      "##liyoruz": 6558,
      "##tak": 6559,
      "##usal": 6560,
      "herkese": 6561,
      "##ülmesi": 6562,
      "nik": 6563,
      "##amik": 6564,
      "mezar": 6565,
      "takdirde": 6566,
      "gelişmeler": 6567,
      "emir": 6568,
      "bulunur": 6569,
      "birleştir": 6570,
      "halen": 6571,
      "##sey": 6572,
      "suret": 6573,
      "mül": 6574,
      "faktör": 6575,
      "##sh": 6576,
      "alabilirsiniz": 6577,
      "##gesi": 6578,
      "değildi": 6579,
      "ilişki": 6580,
      "dinle": 6581,
      "kaçak": 6582,
      "vs": 6583,
      "azından": 6584,
      "ekib": 6585,
      "yoktu": 6586,
      "##isa": 6587,
      "##acağını": 6588,
      "##zan": 6589,
      "esna": 6590,
      "##manızı": 6591,
      "rakip": 6592,
      "özür": 6593,
      "mahkeme": 6594,
      "asya": 6595,
      "##wn": 6596,
      "ülkeler": 6597,
      "##ilmektedir": 6598,
      "diyarbakır": 6599,
      "kırık": 6600,
      "gümüş": 6601,
      "##i̇z": 6602,
      "cinayet": 6603,
      "satı": 6604,
      "##üldü": 6605,
      "konuşan": 6606,
      "##ever": 6607,
      "benzeri": 6608,
      "numar": 6609,
      "##ard": 6610,
      "zirv": 6611,
      "sürücü": 6612,
      "i̇sv": 6613,
      "beyin": 6614,
      "basket": 6615,
      "kimsenin": 6616,
      "bazıları": 6617,
      "ışı": 6618,
      "nat": 6619,
      "kısım": 6620,
      "antren": 6621,
      "##isiniz": 6622,
      "ihale": 6623,
      "##nan": 6624,
      "ilçe": 6625,
      "##mekten": 6626,
      "i̇çin": 6627,
      "kaynağı": 6628,
      "okulu": 6629,
      "elinde": 6630,
      "fo": 6631,
      "biçim": 6632,
      "##anacak": 6633,
      "hissed": 6634,
      "koltuk": 6635,
      "beyan": 6636,
      "39": 6637,
      "sıkı": 6638,
      "##ore": 6639,
      "york": 6640,
      "olmayı": 6641,
      "##meyin": 6642,
      "tap": 6643,
      "modeli": 6644,
      "##antep": 6645,
      "cevab": 6646,
      "amac": 6647,
      "pe": 6648,
      "i̇talya": 6649,
      "##ılmasını": 6650,
      "##nak": 6651,
      "güvenliği": 6652,
      "düzelt": 6653,
      "izlen": 6654,
      "işbirliği": 6655,
      "olduklarını": 6656,
      "kullanma": 6657,
      "senar": 6658,
      "##des": 6659,
      "mevzu": 6660,
      "##i̇t": 6661,
      "şunları": 6662,
      "çıkart": 6663,
      "ph": 6664,
      "yanına": 6665,
      "##sına": 6666,
      "##gah": 6667,
      "sorunun": 6668,
      "diyet": 6669,
      "rej": 6670,
      "##melidir": 6671,
      "açıdan": 6672,
      "##lılar": 6673,
      "korku": 6674,
      "yönetmen": 6675,
      "aralarında": 6676,
      "milletvekil": 6677,
      "maddi": 6678,
      "garan": 6679,
      "##müştür": 6680,
      "##jinal": 6681,
      "##alan": 6682,
      "kos": 6683,
      "sağlıyor": 6684,
      "bez": 6685,
      "##i̇l": 6686,
      "lük": 6687,
      "sigara": 6688,
      "##ırlar": 6689,
      "potan": 6690,
      "42": 6691,
      "edebilirsiniz": 6692,
      "pişir": 6693,
      "##dılar": 6694,
      "evi": 6695,
      "şunu": 6696,
      "anlatan": 6697,
      "##ıklık": 6698,
      "anlaşma": 6699,
      "##ınızın": 6700,
      "##demir": 6701,
      "windo": 6702,
      "doğa": 6703,
      "emekli": 6704,
      "##itir": 6705,
      "tev": 6706,
      "sözleri": 6707,
      "inci": 6708,
      "devleti": 6709,
      "##kaya": 6710,
      "nih": 6711,
      "potansiy": 6712,
      "aktiv": 6713,
      "##ağa": 6714,
      "belirtildi": 6715,
      "şehr": 6716,
      "##melik": 6717,
      "uzay": 6718,
      "maddesi": 6719,
      "gözaltına": 6720,
      "isti": 6721,
      "vol": 6722,
      "hür": 6723,
      "yüzey": 6724,
      "şeri": 6725,
      "müst": 6726,
      "sorunları": 6727,
      "edilecek": 6728,
      "fuar": 6729,
      "taleb": 6730,
      "##parator": 6731,
      "##stik": 6732,
      "erkekler": 6733,
      "döviz": 6734,
      "devrim": 6735,
      "ag": 6736,
      "beklent": 6737,
      "bunlardan": 6738,
      "prens": 6739,
      "##duğum": 6740,
      "gu": 6741,
      "##ülebilir": 6742,
      "cami": 6743,
      "komutan": 6744,
      "##yasal": 6745,
      "bakımından": 6746,
      "gündeme": 6747,
      "##madığı": 6748,
      "##ılmasına": 6749,
      "işçi": 6750,
      "havalim": 6751,
      "##ğında": 6752,
      "bağır": 6753,
      "gördüm": 6754,
      "seninle": 6755,
      "##sızlık": 6756,
      "yaklaşım": 6757,
      "çey": 6758,
      "teor": 6759,
      "##ruk": 6760,
      "iade": 6761,
      "yarışma": 6762,
      "yaşar": 6763,
      "##kın": 6764,
      "yoluyla": 6765,
      "milliyet": 6766,
      "incelem": 6767,
      "fiziksel": 6768,
      "yiyecek": 6769,
      "oraya": 6770,
      "##ity": 6771,
      "bahar": 6772,
      "##işehir": 6773,
      "##okulu": 6774,
      "yönünde": 6775,
      "adeta": 6776,
      "düşen": 6777,
      "##mos": 6778,
      "önde": 6779,
      "komisyonu": 6780,
      "arkadaşı": 6781,
      "noktada": 6782,
      "cerrah": 6783,
      "2001": 6784,
      "gazetesi": 6785,
      "mağaza": 6786,
      "##maması": 6787,
      "iyice": 6788,
      "##lý": 6789,
      "##yu": 6790,
      "nu": 6791,
      "hadi": 6792,
      "hediy": 6793,
      "yerden": 6794,
      "##ıf": 6795,
      "sof": 6796,
      "süley": 6797,
      "karadeniz": 6798,
      "lideri": 6799,
      "endek": 6800,
      "imkanı": 6801,
      "göm": 6802,
      "karşıya": 6803,
      "##mesinde": 6804,
      "##biy": 6805,
      "yılından": 6806,
      "sus": 6807,
      "filistin": 6808,
      "gaziantep": 6809,
      "istanbul": 6810,
      "##cağınız": 6811,
      "je": 6812,
      "olduğum": 6813,
      "##ysa": 6814,
      "dük": 6815,
      "53": 6816,
      "##liy": 6817,
      "pir": 6818,
      "çocuğu": 6819,
      "sözc": 6820,
      "##aseb": 6821,
      "müzak": 6822,
      "##ding": 6823,
      "müdürlüğ": 6824,
      "##lacaktır": 6825,
      "##ğin": 6826,
      "yolda": 6827,
      "alet": 6828,
      "##iki": 6829,
      "##lerimizin": 6830,
      "güçlendir": 6831,
      "sevk": 6832,
      "##acağım": 6833,
      "yukarıda": 6834,
      "windows": 6835,
      "başlayacak": 6836,
      "karşılaştır": 6837,
      "##liliği": 6838,
      "##eceksiniz": 6839,
      "sertif": 6840,
      "yaşat": 6841,
      "üstünde": 6842,
      "yayınlanan": 6843,
      "köyü": 6844,
      "okun": 6845,
      "##so": 6846,
      "oysa": 6847,
      "bakın": 6848,
      "yaptım": 6849,
      "çocukları": 6850,
      "yapısı": 6851,
      "insanlara": 6852,
      "olmadı": 6853,
      "##uyoruz": 6854,
      "varlık": 6855,
      "##şi": 6856,
      "kalmış": 6857,
      "sm": 6858,
      "tbmm": 6859,
      "wil": 6860,
      "cumartesi": 6861,
      "john": 6862,
      "uyuştur": 6863,
      "##sör": 6864,
      "halka": 6865,
      "##ikat": 6866,
      "##ğına": 6867,
      "durumlarda": 6868,
      "silahlı": 6869,
      "bilgiye": 6870,
      "süleyman": 6871,
      "47": 6872,
      "yeten": 6873,
      "özet": 6874,
      "mahkemesi": 6875,
      "sch": 6876,
      "demokrasi": 6877,
      "incelen": 6878,
      "##po": 6879,
      "birbirine": 6880,
      "seri": 6881,
      "##ilyon": 6882,
      "husus": 6883,
      "gördük": 6884,
      "rehber": 6885,
      "ekibi": 6886,
      "slo": 6887,
      "maaş": 6888,
      "400": 6889,
      "özgürlük": 6890,
      "anlamı": 6891,
      "adayı": 6892,
      "##dığından": 6893,
      "besin": 6894,
      "kupası": 6895,
      "nem": 6896,
      "las": 6897,
      "haberler": 6898,
      "üstelik": 6899,
      "raporu": 6900,
      "##rag": 6901,
      "derg": 6902,
      "##12": 6903,
      "hâlâ": 6904,
      "kursu": 6905,
      "##lıyorum": 6906,
      "##pt": 6907,
      "doç": 6908,
      "##paşa": 6909,
      "##şe": 6910,
      "gösterir": 6911,
      "vo": 6912,
      "kullanan": 6913,
      "numaralı": 6914,
      "yenilen": 6915,
      "gerektiği": 6916,
      "aykırı": 6917,
      "parmak": 6918,
      "olsay": 6919,
      "bakalım": 6920,
      "verilir": 6921,
      "yıllardır": 6922,
      "ortamda": 6923,
      "vitam": 6924,
      "##gs": 6925,
      "deri": 6926,
      "lisesi": 6927,
      "##rama": 6928,
      "##tum": 6929,
      "verg": 6930,
      "haklı": 6931,
      "##rük": 6932,
      "##eceğimiz": 6933,
      "wor": 6934,
      "##ruf": 6935,
      "hekim": 6936,
      "telefonu": 6937,
      "işleri": 6938,
      "##sup": 6939,
      "bayrak": 6940,
      "##ell": 6941,
      "görünüm": 6942,
      "194": 6943,
      "kilit": 6944,
      "kariyer": 6945,
      "cenaz": 6946,
      "yüküm": 6947,
      "muhammed": 6948,
      "##olog": 6949,
      "olacağı": 6950,
      "##ükle": 6951,
      "garanti": 6952,
      "cezası": 6953,
      "üyelik": 6954,
      "diplo": 6955,
      "maz": 6956,
      "kast": 6957,
      "üretimi": 6958,
      "geldiğini": 6959,
      "##resi": 6960,
      "siteleri": 6961,
      "vermeye": 6962,
      "lit": 6963,
      "niş": 6964,
      "##tılar": 6965,
      "kaps": 6966,
      "adamın": 6967,
      "düzenleme": 6968,
      "##masın": 6969,
      "kütü": 6970,
      "bireysel": 6971,
      "dili": 6972,
      "istiyorsanız": 6973,
      "fazlası": 6974,
      "hadis": 6975,
      "kullandı": 6976,
      "ır": 6977,
      "##enn": 6978,
      "##ji": 6979,
      "parla": 6980,
      "düşünce": 6981,
      "43": 6982,
      "link": 6983,
      "ege": 6984,
      "##biyet": 6985,
      "##kon": 6986,
      "uyku": 6987,
      "kimyasal": 6988,
      "çağrı": 6989,
      "dağıt": 6990,
      "##masyon": 6991,
      "niye": 6992,
      "gereği": 6993,
      "yaşamak": 6994,
      "oldum": 6995,
      "##lüğe": 6996,
      "##utu": 6997,
      "dönüşüm": 6998,
      "##isti": 6999,
      "şeyleri": 7000,
      "##ği̇": 7001,
      "##ray": 7002,
      "##gat": 7003,
      "vali": 7004,
      "kazanan": 7005,
      "çanakkale": 7006,
      "arş": 7007,
      "ölçüde": 7008,
      "cennet": 7009,
      "mersin": 7010,
      "bildirdi": 7011,
      "şahin": 7012,
      "rö": 7013,
      "muhaf": 7014,
      "tasarruf": 7015,
      "46": 7016,
      "sonsuz": 7017,
      "##amıyor": 7018,
      "terörist": 7019,
      "çekti": 7020,
      "başı": 7021,
      "bölümünde": 7022,
      "demiş": 7023,
      "akdeniz": 7024,
      "duruma": 7025,
      "yetenek": 7026,
      "zamanlar": 7027,
      "ilave": 7028,
      "mutluluk": 7029,
      "felsef": 7030,
      "##ılıp": 7031,
      "kolayca": 7032,
      "##ilerle": 7033,
      "insanı": 7034,
      "ulaşım": 7035,
      "andro": 7036,
      "oynaya": 7037,
      "##şallah": 7038,
      "fetö": 7039,
      "tü": 7040,
      "olmalıdır": 7041,
      "##tc": 7042,
      "büyüme": 7043,
      "alak": 7044,
      "ast": 7045,
      "kelime": 7046,
      "firmamız": 7047,
      "##tup": 7048,
      "##ıldığını": 7049,
      "##yol": 7050,
      "##dınız": 7051,
      "toplantısı": 7052,
      "gelişmiş": 7053,
      "kızıl": 7054,
      "hot": 7055,
      "algı": 7056,
      "##bek": 7057,
      "##larken": 7058,
      "belirlenen": 7059,
      "disip": 7060,
      "kargo": 7061,
      "kahve": 7062,
      "uça": 7063,
      "değin": 7064,
      "kahvaltı": 7065,
      "alınacak": 7066,
      "olamaz": 7067,
      "halkı": 7068,
      "indirim": 7069,
      "193": 7070,
      "yönetmelik": 7071,
      "bizler": 7072,
      "sever": 7073,
      "günler": 7074,
      "41": 7075,
      "##kal": 7076,
      "sc": 7077,
      "inc": 7078,
      "##ilerde": 7079,
      "##esi̇": 7080,
      "esnaf": 7081,
      "hip": 7082,
      "lan": 7083,
      "bilen": 7084,
      "fan": 7085,
      "festival": 7086,
      "##gılan": 7087,
      "burası": 7088,
      "pratik": 7089,
      "##larımı": 7090,
      "tı": 7091,
      "tehlikeli": 7092,
      "195": 7093,
      "yerlerde": 7094,
      "malatya": 7095,
      "150": 7096,
      "arzu": 7097,
      "verilmesi": 7098,
      "gurur": 7099,
      "mobilya": 7100,
      "##ıldığında": 7101,
      "dalı": 7102,
      "##don": 7103,
      "##illa": 7104,
      "yönetmeli": 7105,
      "pam": 7106,
      "abdullah": 7107,
      "uyuşturucu": 7108,
      "pazartesi": 7109,
      "jandar": 7110,
      "##ilerinden": 7111,
      "öncesinde": 7112,
      "gümrük": 7113,
      "##int": 7114,
      "şeye": 7115,
      "ii": 7116,
      "meml": 7117,
      "ul": 7118,
      "ur": 7119,
      "##memesi": 7120,
      "qu": 7121,
      "bilmiyor": 7122,
      "yerler": 7123,
      "manz": 7124,
      "##tığımız": 7125,
      "yürütü": 7126,
      "##cıların": 7127,
      "sessiz": 7128,
      "gösterdi": 7129,
      "##liliğ": 7130,
      "yitir": 7131,
      "matematik": 7132,
      "çam": 7133,
      "hasar": 7134,
      "mektup": 7135,
      "##day": 7136,
      "hatırlat": 7137,
      "ekipleri": 7138,
      "seviye": 7139,
      "log": 7140,
      "paylaşım": 7141,
      "sporcu": 7142,
      "bomba": 7143,
      "olayı": 7144,
      "nev": 7145,
      "ulaşabilirsiniz": 7146,
      "toplan": 7147,
      "##23": 7148,
      "##laz": 7149,
      "imkân": 7150,
      "zafer": 7151,
      "yazık": 7152,
      "afrika": 7153,
      "selçuk": 7154,
      "olmaktadır": 7155,
      "çik": 7156,
      "##anız": 7157,
      "anlaya": 7158,
      "karma": 7159,
      "##hone": 7160,
      "görüşme": 7161,
      "getirmek": 7162,
      "sıfır": 7163,
      "tuş": 7164,
      "##ograf": 7165,
      "##ahh": 7166,
      "protok": 7167,
      "kaybol": 7168,
      "pazarlama": 7169,
      "##lerindeki": 7170,
      "alkol": 7171,
      "##cılığı": 7172,
      "##lerdi": 7173,
      "gecik": 7174,
      "toplumun": 7175,
      "##bot": 7176,
      "rezerv": 7177,
      "lond": 7178,
      "hazırla": 7179,
      "##asındaki": 7180,
      "çıkmış": 7181,
      "atık": 7182,
      "ziya": 7183,
      "etmiştir": 7184,
      "bütçe": 7185,
      "54": 7186,
      "##ks": 7187,
      "yapabilirsiniz": 7188,
      "açma": 7189,
      "neyse": 7190,
      "efendim": 7191,
      "türü": 7192,
      "bulama": 7193,
      "tad": 7194,
      "memleket": 7195,
      "genelinde": 7196,
      "kaçın": 7197,
      "itiraz": 7198,
      "nec": 7199,
      "##lete": 7200,
      "soruşturma": 7201,
      "nam": 7202,
      "ful": 7203,
      "yakından": 7204,
      "post": 7205,
      "hakan": 7206,
      "##labilecek": 7207,
      "defter": 7208,
      "sürü": 7209,
      "i̇nşa": 7210,
      "maale": 7211,
      "şehrin": 7212,
      "sektöründe": 7213,
      "kumaş": 7214,
      "bilgisi": 7215,
      "maalesef": 7216,
      "muay": 7217,
      "lı": 7218,
      "##ilmesini": 7219,
      "meden": 7220,
      "##veren": 7221,
      "paris": 7222,
      "sürece": 7223,
      "prote": 7224,
      "ihtimal": 7225,
      "klima": 7226,
      "sonuçlar": 7227,
      "neh": 7228,
      "ekmek": 7229,
      "zamanında": 7230,
      "meyve": 7231,
      "temas": 7232,
      "saniye": 7233,
      "antik": 7234,
      "zinc": 7235,
      "##itesi": 7236,
      "yaptığını": 7237,
      "maçında": 7238,
      "##ülük": 7239,
      "hakem": 7240,
      "nefret": 7241,
      "##tıkları": 7242,
      "##eceğine": 7243,
      "kaş": 7244,
      "vic": 7245,
      "okur": 7246,
      "ağız": 7247,
      "bodr": 7248,
      "mm": 7249,
      "##isyen": 7250,
      "teşekkürler": 7251,
      "##ori": 7252,
      "annem": 7253,
      "eğil": 7254,
      "cins": 7255,
      "salonu": 7256,
      "mail": 7257,
      "##leki": 7258,
      "dayalı": 7259,
      "gençler": 7260,
      "nesil": 7261,
      "sebebiyle": 7262,
      "bünyesinde": 7263,
      "##tılan": 7264,
      "##ülür": 7265,
      "sız": 7266,
      "android": 7267,
      "sunan": 7268,
      "ideal": 7269,
      "mac": 7270,
      "kazandı": 7271,
      "geliştirme": 7272,
      "##iyorsunuz": 7273,
      "birinc": 7274,
      "haberi": 7275,
      "kütüp": 7276,
      "sahne": 7277,
      "##lesi": 7278,
      "##ub": 7279,
      "##cası": 7280,
      "sıvı": 7281,
      "##atu": 7282,
      "edildiği": 7283,
      "buldu": 7284,
      "alanlar": 7285,
      "ailen": 7286,
      "verim": 7287,
      "yükselt": 7288,
      "adlandır": 7289,
      "tedavisi": 7290,
      "yakış": 7291,
      "sözü": 7292,
      "gayet": 7293,
      "coş": 7294,
      "labor": 7295,
      "istedim": 7296,
      "müte": 7297,
      "hayran": 7298,
      "49": 7299,
      "vermektedir": 7300,
      "ödülü": 7301,
      "##hum": 7302,
      "başlama": 7303,
      "vakfı": 7304,
      "##mesinden": 7305,
      "##ser": 7306,
      "başlaya": 7307,
      "göğüs": 7308,
      "bos": 7309,
      "maçta": 7310,
      "muhale": 7311,
      "##mıyorum": 7312,
      "bileş": 7313,
      "##vu": 7314,
      "rektör": 7315,
      "beslenme": 7316,
      "biridir": 7317,
      "konularda": 7318,
      "isterseniz": 7319,
      "alınarak": 7320,
      "panel": 7321,
      "dig": 7322,
      "bodrum": 7323,
      "istediğim": 7324,
      "##teyiz": 7325,
      "##sızın": 7326,
      "##kır": 7327,
      "##usuna": 7328,
      "suna": 7329,
      "##lerken": 7330,
      "egemen": 7331,
      "kutsal": 7332,
      "bro": 7333,
      "protokol": 7334,
      "yaptığımız": 7335,
      "yolculuk": 7336,
      "çıkara": 7337,
      "kenar": 7338,
      "iğ": 7339,
      "##leyerek": 7340,
      "sırt": 7341,
      "tüz": 7342,
      "tal": 7343,
      "çalışmak": 7344,
      "eğlenceli": 7345,
      "salı": 7346,
      "düşünür": 7347,
      "##duğunuz": 7348,
      "aracılığıyla": 7349,
      "eskişehir": 7350,
      "civarında": 7351,
      "kamyon": 7352,
      "damar": 7353,
      "filmin": 7354,
      "##menizi": 7355,
      "organize": 7356,
      "artan": 7357,
      "öğle": 7358,
      "i̇let": 7359,
      "##si̇": 7360,
      "i̇smail": 7361,
      "darb": 7362,
      "##iyo": 7363,
      "##lenir": 7364,
      "borsa": 7365,
      "kıymet": 7366,
      "##zat": 7367,
      "mensup": 7368,
      "kocaeli": 7369,
      "süredir": 7370,
      "##leyecek": 7371,
      "meclisi": 7372,
      "fabrik": 7373,
      "##anıyorum": 7374,
      "uzmanı": 7375,
      "hemş": 7376,
      "sorunlar": 7377,
      "mesleki": 7378,
      "vererek": 7379,
      "sürpr": 7380,
      "etiketler": 7381,
      "kayseri": 7382,
      "tutan": 7383,
      "##oto": 7384,
      "##araj": 7385,
      "##melerini": 7386,
      "karşın": 7387,
      "yaşama": 7388,
      "##yaj": 7389,
      "misiniz": 7390,
      "##ki̇": 7391,
      "alanları": 7392,
      "banyo": 7393,
      "##eyecek": 7394,
      "52": 7395,
      "basketbol": 7396,
      "çil": 7397,
      "kısı": 7398,
      "##elendir": 7399,
      "hali": 7400,
      "##ebilmek": 7401,
      "kore": 7402,
      "##ebiliriz": 7403,
      "çizg": 7404,
      "güne": 7405,
      "hollanda": 7406,
      "##lıktan": 7407,
      "yapıldığı": 7408,
      "alabil": 7409,
      "##fe": 7410,
      "hatırla": 7411,
      "eya": 7412,
      "gözet": 7413,
      "##ansiyon": 7414,
      "edilebilir": 7415,
      "yaratıcı": 7416,
      "kazanç": 7417,
      "##denin": 7418,
      "ümit": 7419,
      "makine": 7420,
      "tazmin": 7421,
      "##çisi": 7422,
      "dikkatli": 7423,
      "yetersiz": 7424,
      "çarşam": 7425,
      "##gini": 7426,
      "ira": 7427,
      "ris": 7428,
      "fabrika": 7429,
      "umarım": 7430,
      "gidecek": 7431,
      "forum": 7432,
      "firması": 7433,
      "arkadaşım": 7434,
      "düzeyde": 7435,
      "zemin": 7436,
      "##vat": 7437,
      "vakıf": 7438,
      "parlak": 7439,
      "karay": 7440,
      "birine": 7441,
      "##rop": 7442,
      "##atistik": 7443,
      "##ebek": 7444,
      "işgal": 7445,
      "turnu": 7446,
      "##emeyen": 7447,
      "istihdam": 7448,
      "muk": 7449,
      "kiralık": 7450,
      "##imle": 7451,
      "bulut": 7452,
      "makinesi": 7453,
      "##ılmaktadır": 7454,
      "##satı": 7455,
      "bildirildi": 7456,
      "kalıcı": 7457,
      "roma": 7458,
      "uk": 7459,
      "##los": 7460,
      "##acaktır": 7461,
      "korumak": 7462,
      "kıv": 7463,
      "ailesi": 7464,
      "##dunuz": 7465,
      "gal": 7466,
      "sahil": 7467,
      "alınır": 7468,
      "sayede": 7469,
      "verici": 7470,
      "##onun": 7471,
      "makyaj": 7472,
      "noktası": 7473,
      "raki": 7474,
      "tanesi": 7475,
      "reform": 7476,
      "aziz": 7477,
      "bonus": 7478,
      "yürü": 7479,
      "##ısal": 7480,
      "kullandığı": 7481,
      "akademik": 7482,
      "başlıklı": 7483,
      "uyumlu": 7484,
      "maruz": 7485,
      "##melerin": 7486,
      "##lanabilir": 7487,
      "arşiv": 7488,
      "çarşamba": 7489,
      "kuy": 7490,
      "aşı": 7491,
      "##lerimize": 7492,
      "hükm": 7493,
      "rahmet": 7494,
      "endüstr": 7495,
      "##ilmesine": 7496,
      "alabilir": 7497,
      "heyet": 7498,
      "günden": 7499,
      "günah": 7500,
      "buyur": 7501,
      "laf": 7502,
      "58": 7503,
      "birleşik": 7504,
      "esnasında": 7505,
      "yöntemi": 7506,
      "##itter": 7507,
      "ayda": 7508,
      "##iyel": 7509,
      "oyunc": 7510,
      "i̇p": 7511,
      "yapıp": 7512,
      "col": 7513,
      "sivas": 7514,
      "hayatın": 7515,
      "ytl": 7516,
      "gerektiğ": 7517,
      "##ilmez": 7518,
      "##dığın": 7519,
      "kusur": 7520,
      "##lıca": 7521,
      "hükümeti": 7522,
      "##ğının": 7523,
      "hizmetler": 7524,
      "seven": 7525,
      "harekete": 7526,
      "farkı": 7527,
      "##ilya": 7528,
      "##tah": 7529,
      "derecede": 7530,
      "##liye": 7531,
      "##ima": 7532,
      "düşüş": 7533,
      "kalacak": 7534,
      "merkezinde": 7535,
      "iphone": 7536,
      "dolarlık": 7537,
      "tamir": 7538,
      "londra": 7539,
      "yata": 7540,
      "topra": 7541,
      "tir": 7542,
      "uygulamaları": 7543,
      "belge": 7544,
      "gittik": 7545,
      "56": 7546,
      "zorlu": 7547,
      "nö": 7548,
      "##mo": 7549,
      "jandarma": 7550,
      "attı": 7551,
      "som": 7552,
      "##diy": 7553,
      "##imini": 7554,
      "bulgar": 7555,
      "##mız": 7556,
      "anlattı": 7557,
      "play": 7558,
      "sekiz": 7559,
      "zorluk": 7560,
      "barındır": 7561,
      "##fik": 7562,
      "hastalığı": 7563,
      "senden": 7564,
      "##cin": 7565,
      "numarası": 7566,
      "gayret": 7567,
      "hu": 7568,
      "mp": 7569,
      "##mis": 7570,
      "##tuğu": 7571,
      "annesi": 7572,
      "özgü": 7573,
      "aşık": 7574,
      "çekici": 7575,
      "gerçekleşen": 7576,
      "i̇t": 7577,
      "perş": 7578,
      "gözük": 7579,
      "görmüş": 7580,
      "çalışmalarını": 7581,
      "fatura": 7582,
      "##barı": 7583,
      "##lent": 7584,
      "konuyu": 7585,
      "çatışma": 7586,
      "##ash": 7587,
      "##lemesi": 7588,
      "##lası": 7589,
      "beda": 7590,
      "malzemeleri": 7591,
      "##pat": 7592,
      "##usuf": 7593,
      "yolculu": 7594,
      "aslan": 7595,
      "başlamış": 7596,
      "finansal": 7597,
      "şirketin": 7598,
      "tef": 7599,
      "istemiyorum": 7600,
      "uğr": 7601,
      "##ây": 7602,
      "i̇şleri": 7603,
      "sanal": 7604,
      "derken": 7605,
      "##irim": 7606,
      "apple": 7607,
      "##tıcı": 7608,
      "bayramı": 7609,
      "##bbi": 7610,
      "kutu": 7611,
      "istediğini": 7612,
      "ahş": 7613,
      "##uzu": 7614,
      "yılının": 7615,
      "##ğe": 7616,
      "emre": 7617,
      "kısıt": 7618,
      "kuran": 7619,
      "rüzgar": 7620,
      "erzurum": 7621,
      "gerekse": 7622,
      "bunlara": 7623,
      "ağr": 7624,
      "adresi": 7625,
      "##sul": 7626,
      "kemik": 7627,
      "kolaylaştır": 7628,
      "sınırlı": 7629,
      "keyifli": 7630,
      "bugünkü": 7631,
      "yusuf": 7632,
      "##ýþ": 7633,
      "evinde": 7634,
      "i̇d": 7635,
      "market": 7636,
      "olunca": 7637,
      "pamuk": 7638,
      "##diğimi": 7639,
      "mantık": 7640,
      "alması": 7641,
      "##ona": 7642,
      "##stan": 7643,
      "turist": 7644,
      "telek": 7645,
      "mağdur": 7646,
      "duruyor": 7647,
      "hariç": 7648,
      "muhalefet": 7649,
      "##ane": 7650,
      "tutul": 7651,
      "64": 7652,
      "konseyi": 7653,
      "51": 7654,
      "liste": 7655,
      "tüketic": 7656,
      "verimli": 7657,
      "koz": 7658,
      "kimin": 7659,
      "##talyan": 7660,
      "pis": 7661,
      "##ektif": 7662,
      "efsan": 7663,
      "##ese": 7664,
      "bağımlı": 7665,
      "##ilip": 7666,
      "olmaması": 7667,
      "plastik": 7668,
      "##ump": 7669,
      "bekleniyor": 7670,
      "ste": 7671,
      "lak": 7672,
      "psikolojik": 7673,
      "##liam": 7674,
      "cesaret": 7675,
      "##elle": 7676,
      "etiket": 7677,
      "##mediğini": 7678,
      "bizimle": 7679,
      "##lacağını": 7680,
      "verdim": 7681,
      "##edi": 7682,
      "çabuk": 7683,
      "2019": 7684,
      "57": 7685,
      "yeterince": 7686,
      "seviyorum": 7687,
      "garant": 7688,
      "uygulanan": 7689,
      "##mamak": 7690,
      "gemi": 7691,
      "##asız": 7692,
      "lise": 7693,
      "i̇nşaat": 7694,
      "olama": 7695,
      "gelmesi": 7696,
      "önemi": 7697,
      "federasyonu": 7698,
      "yapmayı": 7699,
      "eminim": 7700,
      "ulu": 7701,
      "perşembe": 7702,
      "191": 7703,
      "##ülüyor": 7704,
      "##val": 7705,
      "orhan": 7706,
      "inanç": 7707,
      "kalıyor": 7708,
      "gelince": 7709,
      "vade": 7710,
      "yılları": 7711,
      "##uman": 7712,
      "çizgi": 7713,
      "tanr": 7714,
      "sunulan": 7715,
      "sürpriz": 7716,
      "##balık": 7717,
      "büyükel": 7718,
      "çekim": 7719,
      "istifa": 7720,
      "##suzluk": 7721,
      "yoğ": 7722,
      "muhaseb": 7723,
      "mülk": 7724,
      "oğlum": 7725,
      "traf": 7726,
      "##elerek": 7727,
      "##tel": 7728,
      "##landığını": 7729,
      "yapın": 7730,
      "##ie": 7731,
      "ettiler": 7732,
      "twitter": 7733,
      "kanat": 7734,
      "harf": 7735,
      "hakkındaki": 7736,
      "##yiz": 7737,
      "yaprak": 7738,
      "inf": 7739,
      "sesi": 7740,
      "##ts": 7741,
      "çalışmaya": 7742,
      "i̇spanya": 7743,
      "cema": 7744,
      "yönel": 7745,
      "##oo": 7746,
      "garip": 7747,
      "##ib": 7748,
      "edilmektedir": 7749,
      "http": 7750,
      "altını": 7751,
      "hükümetin": 7752,
      "##lamayı": 7753,
      "kendinizi": 7754,
      "baban": 7755,
      "oyunun": 7756,
      "olmaktan": 7757,
      "##tek": 7758,
      "buradaki": 7759,
      "ahşap": 7760,
      "deli": 7761,
      "gördü": 7762,
      "gözden": 7763,
      "çalışır": 7764,
      "önder": 7765,
      "bulan": 7766,
      "##iyorsun": 7767,
      "görevl": 7768,
      "star": 7769,
      "##ral": 7770,
      "geriye": 7771,
      "festivali": 7772,
      "kaymakam": 7773,
      "ust": 7774,
      "##madım": 7775,
      "yapması": 7776,
      "##ilebil": 7777,
      "öldü": 7778,
      "anket": 7779,
      "yolları": 7780,
      "sakat": 7781,
      "zan": 7782,
      "nez": 7783,
      "suretiyle": 7784,
      "ücreti": 7785,
      "sunul": 7786,
      "aşkın": 7787,
      "metrek": 7788,
      "alışkan": 7789,
      "##sy": 7790,
      "çök": 7791,
      "beklenen": 7792,
      "bulabilirsiniz": 7793,
      "fas": 7794,
      "kararlı": 7795,
      "akın": 7796,
      "bakanlık": 7797,
      "##isiz": 7798,
      "bülent": 7799,
      "mevcuttur": 7800,
      "##mr": 7801,
      "geride": 7802,
      "olurdu": 7803,
      "##gül": 7804,
      "bedava": 7805,
      "nükle": 7806,
      "##malıyız": 7807,
      "##çu": 7808,
      "çıl": 7809,
      "ortada": 7810,
      "kalkınma": 7811,
      "çağdaş": 7812,
      "fe": 7813,
      "gündüz": 7814,
      "anında": 7815,
      "250": 7816,
      "##red": 7817,
      "##leye": 7818,
      "bulur": 7819,
      "formu": 7820,
      "projeler": 7821,
      "evine": 7822,
      "üstü": 7823,
      "grafik": 7824,
      "erişim": 7825,
      "aa": 7826,
      "mesle": 7827,
      "sön": 7828,
      "##dd": 7829,
      "isterim": 7830,
      "kapak": 7831,
      "##tığım": 7832,
      "başarısız": 7833,
      "vadeli": 7834,
      "siyasal": 7835,
      "sergil": 7836,
      "##jan": 7837,
      "hepimiz": 7838,
      "bisiklet": 7839,
      "aklı": 7840,
      "verilecek": 7841,
      "bulunmak": 7842,
      "eme": 7843,
      "##unuzu": 7844,
      "##tifak": 7845,
      "muhtemelen": 7846,
      "##tayız": 7847,
      "günleri": 7848,
      "alama": 7849,
      "musunuz": 7850,
      "##uc": 7851,
      "my": 7852,
      "cal": 7853,
      "i̇letişim": 7854,
      "miktarda": 7855,
      "biliyoruz": 7856,
      "##larınızın": 7857,
      "faydalı": 7858,
      "##ph": 7859,
      "##osk": 7860,
      "alev": 7861,
      "##esto": 7862,
      "hatt": 7863,
      "kullanılması": 7864,
      "evin": 7865,
      "blok": 7866,
      "emlak": 7867,
      "lam": 7868,
      "disiplin": 7869,
      "porno": 7870,
      "etmez": 7871,
      "yapılıyor": 7872,
      "giyim": 7873,
      "ahlak": 7874,
      "tıpkı": 7875,
      "ceb": 7876,
      "açıklaması": 7877,
      "istis": 7878,
      "##oft": 7879,
      "hid": 7880,
      "yumuşak": 7881,
      "kalıp": 7882,
      "192": 7883,
      "çoğunluk": 7884,
      "düzenlediği": 7885,
      "zehir": 7886,
      "ndeki": 7887,
      "sizleri": 7888,
      "ayet": 7889,
      "itha": 7890,
      "maliye": 7891,
      "paha": 7892,
      "olduğunda": 7893,
      "ori": 7894,
      "isteme": 7895,
      "geldiğinde": 7896,
      "montaj": 7897,
      "raf": 7898,
      "telekom": 7899,
      "devamı": 7900,
      "güler": 7901,
      "harek": 7902,
      "vel": 7903,
      "hayırlı": 7904,
      "görevlendir": 7905,
      "##içi": 7906,
      "hil": 7907,
      "işlev": 7908,
      "sanıyor": 7909,
      "nereye": 7910,
      "hazine": 7911,
      "teki": 7912,
      "galibiyet": 7913,
      "caddesi": 7914,
      "şahıs": 7915,
      "oyunlar": 7916,
      "i̇talyan": 7917,
      "##mali": 7918,
      "enteg": 7919,
      "taraftan": 7920,
      "öğrenmek": 7921,
      "kamuoy": 7922,
      "olaylar": 7923,
      "bitki": 7924,
      "yıla": 7925,
      "gelişme": 7926,
      "öp": 7927,
      "denizli": 7928,
      "konfor": 7929,
      "arkasında": 7930,
      "bulunması": 7931,
      "nereden": 7932,
      "haftada": 7933,
      "masraf": 7934,
      "yönde": 7935,
      "##ow": 7936,
      "hindistan": 7937,
      "yüzlerce": 7938,
      "##paz": 7939,
      "temsilcisi": 7940,
      "öğrencileri": 7941,
      "koleksiyon": 7942,
      "pilot": 7943,
      "kabil": 7944,
      "uydu": 7945,
      "rekor": 7946,
      "kodu": 7947,
      "yurtdış": 7948,
      "toplantısında": 7949,
      "haş": 7950,
      "##tikten": 7951,
      "olmasa": 7952,
      "dergisi": 7953,
      "##diven": 7954,
      "macer": 7955,
      "##kun": 7956,
      "##imp": 7957,
      "müf": 7958,
      "azer": 7959,
      "kaydı": 7960,
      "eskiden": 7961,
      "sunum": 7962,
      "tuva": 7963,
      "yil": 7964,
      "göstermek": 7965,
      "kişiyi": 7966,
      "çuk": 7967,
      "arayan": 7968,
      "pencer": 7969,
      "lanet": 7970,
      "içinden": 7971,
      "üstlen": 7972,
      "seçimi": 7973,
      "göst": 7974,
      "saati": 7975,
      "tarihinden": 7976,
      "çır": 7977,
      "teker": 7978,
      "full": 7979,
      "iyileştir": 7980,
      "##iti": 7981,
      "sakarya": 7982,
      "dola": 7983,
      "aksine": 7984,
      "donanım": 7985,
      "##lâm": 7986,
      "##leyin": 7987,
      "atöl": 7988,
      "tarifi": 7989,
      "bahçeli": 7990,
      "etmem": 7991,
      "netic": 7992,
      "mevsim": 7993,
      "olduğumu": 7994,
      "unutul": 7995,
      "dayanıklı": 7996,
      "hast": 7997,
      "##amızda": 7998,
      "karanlık": 7999,
      "şanlı": 8000,
      "çıkıp": 8001,
      "##lerimi": 8002,
      "forma": 8003,
      "komşu": 8004,
      "##liyorum": 8005,
      "##fed": 8006,
      "şehri": 8007,
      "hastalıkları": 8008,
      "arıyor": 8009,
      "ci": 8010,
      "doktora": 8011,
      "bahsed": 8012,
      "delik": 8013,
      "ceph": 8014,
      "bacak": 8015,
      "eğlence": 8016,
      "bıçak": 8017,
      "havaalan": 8018,
      "##diğinden": 8019,
      "##lanmaktadır": 8020,
      "sisteminin": 8021,
      "bakar": 8022,
      "potansiyel": 8023,
      "rande": 8024,
      "akış": 8025,
      "##rist": 8026,
      "##ciğer": 8027,
      "##ülmüş": 8028,
      "kaynakları": 8029,
      "caz": 8030,
      "##yim": 8031,
      "tey": 8032,
      "dürüst": 8033,
      "bayanlar": 8034,
      "nükleer": 8035,
      "ederiz": 8036,
      "iletiş": 8037,
      "süreçte": 8038,
      "##ğla": 8039,
      "ömr": 8040,
      "santr": 8041,
      "63": 8042,
      "duygusal": 8043,
      "akses": 8044,
      "bla": 8045,
      "kendisinin": 8046,
      "59": 8047,
      "ömür": 8048,
      "bölün": 8049,
      "##mut": 8050,
      "sizden": 8051,
      "##ste": 8052,
      "##tiğim": 8053,
      "japon": 8054,
      "başsa": 8055,
      "kk": 8056,
      "##slan": 8057,
      "cor": 8058,
      "icin": 8059,
      "aptal": 8060,
      "##ılarak": 8061,
      "engelli": 8062,
      "öf": 8063,
      "canlandır": 8064,
      "##eg": 8065,
      "mana": 8066,
      "kullanıyor": 8067,
      "##bahar": 8068,
      "yüce": 8069,
      "topu": 8070,
      "mol": 8071,
      "##cın": 8072,
      "ven": 8073,
      "yemeği": 8074,
      "kek": 8075,
      "kazana": 8076,
      "alanlarda": 8077,
      "##und": 8078,
      "##kil": 8079,
      "amerikalı": 8080,
      "##ington": 8081,
      "anlatıyor": 8082,
      "sürecinde": 8083,
      "bahçe": 8084,
      "ış": 8085,
      "ürünlerin": 8086,
      "dairesi": 8087,
      "çekir": 8088,
      "çekmek": 8089,
      "prim": 8090,
      "terc": 8091,
      "katıldığı": 8092,
      "kg": 8093,
      "mümkündür": 8094,
      "dedik": 8095,
      "##ladım": 8096,
      "programları": 8097,
      "olmanın": 8098,
      "trabzonspor": 8099,
      "##beden": 8100,
      "##ris": 8101,
      "kalmak": 8102,
      "peyn": 8103,
      "miyim": 8104,
      "saatlerinde": 8105,
      "600": 8106,
      "açtı": 8107,
      "bulunduğunu": 8108,
      "ülkemizin": 8109,
      "kilometre": 8110,
      "japonya": 8111,
      "sürüyor": 8112,
      "meyv": 8113,
      "vizyon": 8114,
      "diyorum": 8115,
      "sektörü": 8116,
      "##nin": 8117,
      "çekiyor": 8118,
      "i̇şlem": 8119,
      "efend": 8120,
      "etmeyi": 8121,
      "işyer": 8122,
      "len": 8123,
      "bizden": 8124,
      "oluşturan": 8125,
      "fit": 8126,
      "değişikliği": 8127,
      "##medim": 8128,
      "aydınlat": 8129,
      "üyeler": 8130,
      "yuvar": 8131,
      "##elal": 8132,
      "##usuz": 8133,
      "##alar": 8134,
      "baktığ": 8135,
      "tabak": 8136,
      "toplantıda": 8137,
      "silin": 8138,
      "anlar": 8139,
      "üretilen": 8140,
      "devir": 8141,
      "i̇le": 8142,
      "sözler": 8143,
      "yağı": 8144,
      "99": 8145,
      "olağanüstü": 8146,
      "çöp": 8147,
      "##örü": 8148,
      "geçiyor": 8149,
      "rabb": 8150,
      "biliyorsun": 8151,
      "şimdiye": 8152,
      "kullanabil": 8153,
      "bileti": 8154,
      "sorular": 8155,
      "taşıyor": 8156,
      "i̇mam": 8157,
      "tekst": 8158,
      "alıcı": 8159,
      "sabır": 8160,
      "imz": 8161,
      "eyalet": 8162,
      "katil": 8163,
      "boru": 8164,
      "dosy": 8165,
      "suçlu": 8166,
      "şeref": 8167,
      "ülkelerin": 8168,
      "uzan": 8169,
      "gönüllü": 8170,
      "düşündüğ": 8171,
      "hiss": 8172,
      "işletme": 8173,
      "satışa": 8174,
      "##rib": 8175,
      "##azı": 8176,
      "ulaşmak": 8177,
      "gor": 8178,
      "satılık": 8179,
      "##eyerek": 8180,
      "plak": 8181,
      "dondur": 8182,
      "##lamaları": 8183,
      "paral": 8184,
      "dünyadaki": 8185,
      "şö": 8186,
      "##mini": 8187,
      "düzgün": 8188,
      "gayrim": 8189,
      "edilerek": 8190,
      "##larınıza": 8191,
      "##emem": 8192,
      "sakın": 8193,
      "gam": 8194,
      "tüp": 8195,
      "tıbbi": 8196,
      "takımın": 8197,
      "kartal": 8198,
      "##lığından": 8199,
      "köprü": 8200,
      "bizde": 8201,
      "olmaları": 8202,
      "##tıktan": 8203,
      "##idi": 8204,
      "sinyal": 8205,
      "bizlere": 8206,
      "tavsiy": 8207,
      "özelleştir": 8208,
      "fırsatı": 8209,
      "soruları": 8210,
      "arasına": 8211,
      "dönemin": 8212,
      "i̇r": 8213,
      "adıyla": 8214,
      "##11": 8215,
      "aksi": 8216,
      "memnuniyet": 8217,
      "i̇lg": 8218,
      "ulaşı": 8219,
      "tedar": 8220,
      "hamil": 8221,
      "##likleri": 8222,
      "inceleme": 8223,
      "tıkan": 8224,
      "stres": 8225,
      "sy": 8226,
      "sınavı": 8227,
      "çocuklara": 8228,
      "versiyon": 8229,
      "akar": 8230,
      "##yak": 8231,
      "##medik": 8232,
      "süreli": 8233,
      "sizinle": 8234,
      "istikrar": 8235,
      "seksi": 8236,
      "döndü": 8237,
      "dışına": 8238,
      "##mu": 8239,
      "##yaspor": 8240,
      "tutum": 8241,
      "##masi": 8242,
      "gidece": 8243,
      "gezi": 8244,
      "patron": 8245,
      "##ebiliyor": 8246,
      "oradan": 8247,
      "##muştu": 8248,
      "ayakta": 8249,
      "bebeğ": 8250,
      "skor": 8251,
      "yorgun": 8252,
      "##ci̇": 8253,
      "okula": 8254,
      "atak": 8255,
      "gerekirse": 8256,
      "arasından": 8257,
      "büyüy": 8258,
      "kaybetti": 8259,
      "kurmak": 8260,
      "enstitüsü": 8261,
      "listesi": 8262,
      "stratejik": 8263,
      "inti": 8264,
      "çatı": 8265,
      "tavuk": 8266,
      "ves": 8267,
      "karşılıklı": 8268,
      "sanık": 8269,
      "bok": 8270,
      "kole": 8271,
      "robot": 8272,
      "95": 8273,
      "enfeksiyon": 8274,
      "örneği": 8275,
      "##giz": 8276,
      "payı": 8277,
      "vası": 8278,
      "hotel": 8279,
      "##tip": 8280,
      "##ith": 8281,
      "söylemiş": 8282,
      "##sis": 8283,
      "digit": 8284,
      "##lon": 8285,
      "oyuncak": 8286,
      "nar": 8287,
      "açıkça": 8288,
      "canım": 8289,
      "##mus": 8290,
      "gördüğü": 8291,
      "karbon": 8292,
      "##malarını": 8293,
      "olgun": 8294,
      "durumun": 8295,
      "bakır": 8296,
      "by": 8297,
      "tüketim": 8298,
      "org": 8299,
      "hocam": 8300,
      "konular": 8301,
      "##tez": 8302,
      "alana": 8303,
      "olimp": 8304,
      "cumhurbaşkanlığı": 8305,
      "protesto": 8306,
      "apart": 8307,
      "vergisi": 8308,
      "##caya": 8309,
      "koyu": 8310,
      "##ersen": 8311,
      "66": 8312,
      "##gn": 8313,
      "kurtuluş": 8314,
      "aracın": 8315,
      "##ciz": 8316,
      "havalimanı": 8317,
      "olabilecek": 8318,
      "başladım": 8319,
      "rengi": 8320,
      "kontrolü": 8321,
      "char": 8322,
      "miktarı": 8323,
      "85": 8324,
      "##80": 8325,
      "olmuştu": 8326,
      "hepsini": 8327,
      "##tük": 8328,
      "##bilirim": 8329,
      "sandal": 8330,
      "ras": 8331,
      "##rip": 8332,
      "##nav": 8333,
      "yemin": 8334,
      "##ee": 8335,
      "##lerdeki": 8336,
      "bulaş": 8337,
      "başkanlık": 8338,
      "ödey": 8339,
      "bölgeye": 8340,
      "şekli": 8341,
      "edeceğiz": 8342,
      "teşkilat": 8343,
      "marmara": 8344,
      "gram": 8345,
      "##kim": 8346,
      "##riyet": 8347,
      "hakkını": 8348,
      "adli": 8349,
      "##bası": 8350,
      "gelerek": 8351,
      "kullanılabilir": 8352,
      "ekipman": 8353,
      "dekorasyon": 8354,
      "olmuyor": 8355,
      "##ai": 8356,
      "##otik": 8357,
      "stok": 8358,
      "hele": 8359,
      "tedarik": 8360,
      "kuvvetleri": 8361,
      "hur": 8362,
      "inanıyor": 8363,
      "mekaniz": 8364,
      "##şen": 8365,
      "bozul": 8366,
      "##oper": 8367,
      "##lanmak": 8368,
      "sayısının": 8369,
      "çiğ": 8370,
      "gösteri": 8371,
      "1999": 8372,
      "##eğine": 8373,
      "üzgün": 8374,
      "tescil": 8375,
      "doku": 8376,
      "##led": 8377,
      "hek": 8378,
      "ettikleri": 8379,
      "bakımı": 8380,
      "yağış": 8381,
      "asit": 8382,
      "yaralı": 8383,
      "sıradan": 8384,
      "zeki": 8385,
      "bilmek": 8386,
      "seçenekleri": 8387,
      "i̇lişk": 8388,
      "saçma": 8389,
      "seyret": 8390,
      "bölgesel": 8391,
      "projenin": 8392,
      "kutlu": 8393,
      "sn": 8394,
      "paralel": 8395,
      "##asa": 8396,
      "yayımlanan": 8397,
      "beslen": 8398,
      "lüks": 8399,
      "yerleri": 8400,
      "##ýl": 8401,
      "koyun": 8402,
      "keyf": 8403,
      "estetik": 8404,
      "##usunun": 8405,
      "abi": 8406,
      "dağıtım": 8407,
      "taze": 8408,
      "masaj": 8409,
      "67": 8410,
      "firmalar": 8411,
      "şair": 8412,
      "##ildiğini": 8413,
      "bekleyen": 8414,
      "dokuz": 8415,
      "bakanlar": 8416,
      "aksesuar": 8417,
      "oğl": 8418,
      "edici": 8419,
      "kaşı": 8420,
      "sebeple": 8421,
      "##lup": 8422,
      "##gi̇": 8423,
      "getirdiği": 8424,
      "##tre": 8425,
      "##ým": 8426,
      "bulma": 8427,
      "şara": 8428,
      "görüyoruz": 8429,
      "egzer": 8430,
      "##isindeki": 8431,
      "şartları": 8432,
      "yakıt": 8433,
      "trump": 8434,
      "gelişen": 8435,
      "##ebilirim": 8436,
      "kriter": 8437,
      "ısrar": 8438,
      "konuyla": 8439,
      "satışı": 8440,
      "hel": 8441,
      "açan": 8442,
      "zamanla": 8443,
      "icra": 8444,
      "yapıyoruz": 8445,
      "yürürlüğe": 8446,
      "hareketi": 8447,
      "döner": 8448,
      "sahte": 8449,
      "yolunu": 8450,
      "redde": 8451,
      "i̇nsanlar": 8452,
      "ürünün": 8453,
      "idari": 8454,
      "sembol": 8455,
      "##landırma": 8456,
      "yapmanız": 8457,
      "##tülü": 8458,
      "olabilirsiniz": 8459,
      "yazılmış": 8460,
      "duyarlı": 8461,
      "olduğunun": 8462,
      "nato": 8463,
      "çukur": 8464,
      "egzersiz": 8465,
      "laboratu": 8466,
      "ikram": 8467,
      "mc": 8468,
      "##meliyiz": 8469,
      "sizlerle": 8470,
      "işini": 8471,
      "##dv": 8472,
      "şok": 8473,
      "##maktır": 8474,
      "pahalı": 8475,
      "##ök": 8476,
      "dostum": 8477,
      "oranda": 8478,
      "karab": 8479,
      "##iliğini": 8480,
      "çıkması": 8481,
      "yılına": 8482,
      "öğrencilere": 8483,
      "kavga": 8484,
      "kula": 8485,
      "air": 8486,
      "delil": 8487,
      "sec": 8488,
      "öykü": 8489,
      "##etici": 8490,
      "##i̇ş": 8491,
      "##stagram": 8492,
      "kaydeden": 8493,
      "##ami": 8494,
      "##haf": 8495,
      "diyal": 8496,
      "melek": 8497,
      "kayıtlı": 8498,
      "çıkma": 8499,
      "hastane": 8500,
      "ray": 8501,
      "##hisar": 8502,
      "yazıyor": 8503,
      "ırk": 8504,
      "katılımcı": 8505,
      "dır": 8506,
      "ergen": 8507,
      "piyasaya": 8508,
      "dolara": 8509,
      "burun": 8510,
      "tarafı": 8511,
      "##emizde": 8512,
      "dünyayı": 8513,
      "aldık": 8514,
      "lek": 8515,
      "göstermektedir": 8516,
      "##mamı": 8517,
      "trilyon": 8518,
      "##ates": 8519,
      "##balaj": 8520,
      "görevli": 8521,
      "##varı": 8522,
      "makale": 8523,
      "baraj": 8524,
      "aran": 8525,
      "baştan": 8526,
      "girer": 8527,
      "##gari": 8528,
      "##unç": 8529,
      "pom": 8530,
      "holding": 8531,
      "denir": 8532,
      "##mıştım": 8533,
      "altyapı": 8534,
      "iba": 8535,
      "ölen": 8536,
      "burs": 8537,
      "ermeni": 8538,
      "şubesi": 8539,
      "vatandaşlar": 8540,
      "kıyı": 8541,
      "hani": 8542,
      "katkıda": 8543,
      "bi̇r": 8544,
      "müzaker": 8545,
      "parayı": 8546,
      "ortadoğu": 8547,
      "görevini": 8548,
      "##çın": 8549,
      "##aca": 8550,
      "direktörü": 8551,
      "araçları": 8552,
      "lif": 8553,
      "müzesi": 8554,
      "yetişkin": 8555,
      "ikna": 8556,
      "kapsamlı": 8557,
      "##ang": 8558,
      "komik": 8559,
      "görünce": 8560,
      "olsaydı": 8561,
      "çiko": 8562,
      "şimdiden": 8563,
      "izleyi": 8564,
      "yoksul": 8565,
      "gelmiştir": 8566,
      "zincir": 8567,
      "feth": 8568,
      "dünyası": 8569,
      "##enizi": 8570,
      "mühendisliği": 8571,
      "dörd": 8572,
      "ambalaj": 8573,
      "brez": 8574,
      "bran": 8575,
      "##leyip": 8576,
      "çav": 8577,
      "genişlet": 8578,
      "herkesi": 8579,
      "sağlanması": 8580,
      "utan": 8581,
      "elinden": 8582,
      "nci": 8583,
      "tebrik": 8584,
      "##ât": 8585,
      "oluşur": 8586,
      "öğrenildi": 8587,
      "duran": 8588,
      "değişken": 8589,
      "i̇sa": 8590,
      "1000": 8591,
      "ikisi": 8592,
      "hor": 8593,
      "ikin": 8594,
      "eline": 8595,
      "##manda": 8596,
      "almıştır": 8597,
      "i̇mparator": 8598,
      "şeyden": 8599,
      "imf": 8600,
      "çıktığı": 8601,
      "zamandır": 8602,
      "riv": 8603,
      "glo": 8604,
      "veriler": 8605,
      "##imet": 8606,
      "geleceği": 8607,
      "ayrıntılı": 8608,
      "mutfa": 8609,
      "itibarı": 8610,
      "hattı": 8611,
      "vefat": 8612,
      "dom": 8613,
      "muhtar": 8614,
      "##larsa": 8615,
      "sınırları": 8616,
      "##ala": 8617,
      "ehl": 8618,
      "başladığı": 8619,
      "eşlik": 8620,
      "62": 8621,
      "##espor": 8622,
      "oluşum": 8623,
      "görülür": 8624,
      "sistemin": 8625,
      "profil": 8626,
      "kedi": 8627,
      "saatleri": 8628,
      "##sün": 8629,
      "##ight": 8630,
      "arkadaşları": 8631,
      "##sever": 8632,
      "##ecekler": 8633,
      "##raç": 8634,
      "iman": 8635,
      "kader": 8636,
      "##ydi": 8637,
      "##duktan": 8638,
      "bizzat": 8639,
      "sunduğu": 8640,
      "i̇slâm": 8641,
      "sonuçta": 8642,
      "dışındaki": 8643,
      "şirketleri": 8644,
      "kadını": 8645,
      "bulabil": 8646,
      "öğrenme": 8647,
      "konuya": 8648,
      "kongre": 8649,
      "öv": 8650,
      "boşan": 8651,
      "alırken": 8652,
      "##enkul": 8653,
      "rahatlıkla": 8654,
      "##malısınız": 8655,
      "mevzuat": 8656,
      "##halde": 8657,
      "##soy": 8658,
      "yapılmaktadır": 8659,
      "danışmanlık": 8660,
      "kaybı": 8661,
      "yıkama": 8662,
      "##ive": 8663,
      "ülkeye": 8664,
      "##tılı": 8665,
      "manevi": 8666,
      "deplas": 8667,
      "kaybeden": 8668,
      "##esin": 8669,
      "gelmektedir": 8670,
      "kazanmak": 8671,
      "##utma": 8672,
      "taahh": 8673,
      "tanık": 8674,
      "yazan": 8675,
      "##akk": 8676,
      "##bistan": 8677,
      "gerçeği": 8678,
      "keç": 8679,
      "##wor": 8680,
      "brezilya": 8681,
      "doğur": 8682,
      "plaj": 8683,
      "teknolojisi": 8684,
      "kendime": 8685,
      "kurş": 8686,
      "metro": 8687,
      "kaça": 8688,
      "devreye": 8689,
      "çamaş": 8690,
      "fed": 8691,
      "çalışmalarına": 8692,
      "72": 8693,
      "açıldı": 8694,
      "gazeteci": 8695,
      "başbakanı": 8696,
      "uyarınca": 8697,
      "yapacağı": 8698,
      "şifr": 8699,
      "kaldığı": 8700,
      "plana": 8701,
      "denem": 8702,
      "micros": 8703,
      "82": 8704,
      "##ılmaya": 8705,
      "olayın": 8706,
      "üncü": 8707,
      "##yoruz": 8708,
      "geldik": 8709,
      "##çılık": 8710,
      "altındaki": 8711,
      "karşımıza": 8712,
      "hâl": 8713,
      "##manıza": 8714,
      "##ecik": 8715,
      "doğalgaz": 8716,
      "hukuki": 8717,
      "kullanıcılar": 8718,
      "dü": 8719,
      "kktc": 8720,
      "afgan": 8721,
      "tüketici": 8722,
      "madal": 8723,
      "zihin": 8724,
      "leh": 8725,
      "çim": 8726,
      "anlamlı": 8727,
      "kıyas": 8728,
      "##ılmak": 8729,
      "kendileri": 8730,
      "restoran": 8731,
      "##mekle": 8732,
      "karşılığında": 8733,
      "devre": 8734,
      "##ersiniz": 8735,
      "##yaz": 8736,
      "sesli": 8737,
      "parlamen": 8738,
      "başkenti": 8739,
      "##lana": 8740,
      "herhalde": 8741,
      "aylarında": 8742,
      "##liğiyle": 8743,
      "gösterdiği": 8744,
      "##ende": 8745,
      "arıza": 8746,
      "##imizle": 8747,
      "esen": 8748,
      "##tra": 8749,
      "değişen": 8750,
      "pozit": 8751,
      "##uyla": 8752,
      "asgari": 8753,
      "çanta": 8754,
      "horm": 8755,
      "##tüm": 8756,
      "##mesin": 8757,
      "ceh": 8758,
      "kalitesi": 8759,
      "akra": 8760,
      "orijinal": 8761,
      "wash": 8762,
      "balkan": 8763,
      "yaptığım": 8764,
      "fikr": 8765,
      "##lit": 8766,
      "krem": 8767,
      "mp3": 8768,
      "onlardan": 8769,
      "koruyucu": 8770,
      "tekstil": 8771,
      "haftalık": 8772,
      "maçın": 8773,
      "##madığını": 8774,
      "anlata": 8775,
      "gidiş": 8776,
      "eşliğinde": 8777,
      "kaba": 8778,
      "yakında": 8779,
      "##sının": 8780,
      "vurguladı": 8781,
      "göreve": 8782,
      "korunması": 8783,
      "çetin": 8784,
      "##bert": 8785,
      "yöntemleri": 8786,
      "##melisiniz": 8787,
      "karn": 8788,
      "dediği": 8789,
      "evrak": 8790,
      "iv": 8791,
      "##urk": 8792,
      "taksit": 8793,
      "varmış": 8794,
      "yapılabil": 8795,
      "##çek": 8796,
      "etkileri": 8797,
      "nesn": 8798,
      "##eyn": 8799,
      "tarafında": 8800,
      "gayrimenkul": 8801,
      "tarzı": 8802,
      "manisa": 8803,
      "bag": 8804,
      "mater": 8805,
      "amir": 8806,
      "resimleri": 8807,
      "kütüphan": 8808,
      "kısmını": 8809,
      "##tap": 8810,
      "tablet": 8811,
      "yerleşim": 8812,
      "kullanabilirsiniz": 8813,
      "başından": 8814,
      "yansıt": 8815,
      "denilen": 8816,
      "##ich": 8817,
      "akım": 8818,
      "şartı": 8819,
      "istasyon": 8820,
      "bölgenin": 8821,
      "##mec": 8822,
      "işlemler": 8823,
      "makina": 8824,
      "herşey": 8825,
      "gerçekleşti": 8826,
      "61": 8827,
      "##emiyor": 8828,
      "##emiyorum": 8829,
      "yükümlül": 8830,
      "gecesi": 8831,
      "##res": 8832,
      "obj": 8833,
      "nişan": 8834,
      "düşündüm": 8835,
      "vermesi": 8836,
      "teknolojik": 8837,
      "zamana": 8838,
      "kurumlar": 8839,
      "sonradan": 8840,
      "alımı": 8841,
      "kitle": 8842,
      "köken": 8843,
      "maddesinin": 8844,
      "yalı": 8845,
      "ortasında": 8846,
      "dersi": 8847,
      "sürük": 8848,
      "çapında": 8849,
      "uygulamaya": 8850,
      "##eleriyle": 8851,
      "dilerim": 8852,
      "68": 8853,
      "##tıklarını": 8854,
      "##layabil": 8855,
      "sitesinde": 8856,
      "doğrusu": 8857,
      "idare": 8858,
      "120": 8859,
      "lay": 8860,
      "uyu": 8861,
      "türkmen": 8862,
      "etken": 8863,
      "gününde": 8864,
      "işık": 8865,
      "zararlı": 8866,
      "verin": 8867,
      "sigort": 8868,
      "gereksin": 8869,
      "fıkr": 8870,
      "sığ": 8871,
      "yla": 8872,
      "ked": 8873,
      "alanına": 8874,
      "liman": 8875,
      "##efa": 8876,
      "şeytan": 8877,
      "göze": 8878,
      "##layabilirsiniz": 8879,
      "##ml": 8880,
      "##umuzun": 8881,
      "olmakla": 8882,
      "organiz": 8883,
      "dördüncü": 8884,
      "bölümde": 8885,
      "çalışı": 8886,
      "yir": 8887,
      "hikây": 8888,
      "yardımı": 8889,
      "inanılmaz": 8890,
      "insana": 8891,
      "yazdığı": 8892,
      "dolandır": 8893,
      "##elikle": 8894,
      "referan": 8895,
      "##daroğlu": 8896,
      "ziraat": 8897,
      "sünnet": 8898,
      "kalabalık": 8899,
      "dükkan": 8900,
      "rady": 8901,
      "##burg": 8902,
      "doy": 8903,
      "özer": 8904,
      "medyum": 8905,
      "tazminat": 8906,
      "tamamlan": 8907,
      "suyun": 8908,
      "##dıkça": 8909,
      "kızın": 8910,
      "ilişkileri": 8911,
      "hitap": 8912,
      "istemez": 8913,
      "kaynağ": 8914,
      "geçirmek": 8915,
      "testi": 8916,
      "gran": 8917,
      "bıraktı": 8918,
      "##çilik": 8919,
      "##larý": 8920,
      "mühendislik": 8921,
      "hikmet": 8922,
      "yoluna": 8923,
      "kadık": 8924,
      "fikri": 8925,
      "washington": 8926,
      "##ny": 8927,
      "muy": 8928,
      "mısın": 8929,
      "hayatına": 8930,
      "oynanan": 8931,
      "##balı": 8932,
      "kurucu": 8933,
      "hdp": 8934,
      "##linik": 8935,
      "##30": 8936,
      "arda": 8937,
      "staj": 8938,
      "samsung": 8939,
      "##urfa": 8940,
      "yüzü": 8941,
      "cemaat": 8942,
      "bilgilere": 8943,
      "##umuzu": 8944,
      "##io": 8945,
      "kardeşim": 8946,
      "minik": 8947,
      "daima": 8948,
      "ndaki": 8949,
      "kızlar": 8950,
      "dizisi": 8951,
      "##dağı": 8952,
      "ülkelerde": 8953,
      "##aba": 8954,
      "uzaktan": 8955,
      "##arlar": 8956,
      "konuşmak": 8957,
      "konulu": 8958,
      "sayg": 8959,
      "hazret": 8960,
      "kırk": 8961,
      "hamur": 8962,
      "69": 8963,
      "##lıyoruz": 8964,
      "kopya": 8965,
      "desteğ": 8966,
      "yazarı": 8967,
      "şampiyonası": 8968,
      "geldim": 8969,
      "muhar": 8970,
      "gergin": 8971,
      "biber": 8972,
      "gücünü": 8973,
      "##ete": 8974,
      "vas": 8975,
      "sizde": 8976,
      "mağaz": 8977,
      "wal": 8978,
      "sunmaktadır": 8979,
      "haksız": 8980,
      "keşke": 8981,
      "##birliği": 8982,
      "aklım": 8983,
      "aldığını": 8984,
      "hazırlan": 8985,
      "koku": 8986,
      "otop": 8987,
      "keşfet": 8988,
      "şarj": 8989,
      "##gul": 8990,
      "##likler": 8991,
      "sunucu": 8992,
      "yavuz": 8993,
      "kurtu": 8994,
      "kimseye": 8995,
      "protein": 8996,
      "kısaca": 8997,
      "azerbay": 8998,
      "arnav": 8999,
      "hacı": 9000,
      "gre": 9001,
      "ilçesi": 9002,
      "best": 9003,
      "mide": 9004,
      "bardak": 9005,
      "##pg": 9006,
      "yüklen": 9007,
      "##vil": 9008,
      "yerlere": 9009,
      "asan": 9010,
      "sığın": 9011,
      "bayra": 9012,
      "##we": 9013,
      "onlarla": 9014,
      "ifadelerini": 9015,
      "muz": 9016,
      "filmleri": 9017,
      "dinamik": 9018,
      "isteyenler": 9019,
      "evlat": 9020,
      "##rul": 9021,
      "bası": 9022,
      "##tığında": 9023,
      "sekreter": 9024,
      "bedeli": 9025,
      "merkezine": 9026,
      "küf": 9027,
      "##vin": 9028,
      "çıkardı": 9029,
      "konuları": 9030,
      "dedek": 9031,
      "dudak": 9032,
      "tamamı": 9033,
      "##aydı": 9034,
      "ermen": 9035,
      "##ood": 9036,
      "microsoft": 9037,
      "ms": 9038,
      "chat": 9039,
      "vurgulayan": 9040,
      "konaklama": 9041,
      "unutmayın": 9042,
      "fı": 9043,
      "sözleşmesi": 9044,
      "ukray": 9045,
      "##aç": 9046,
      "##ice": 9047,
      "sunmak": 9048,
      "cey": 9049,
      "arnavut": 9050,
      "atmos": 9051,
      "sep": 9052,
      "topluluk": 9053,
      "tank": 9054,
      "dert": 9055,
      "valisi": 9056,
      "bilişim": 9057,
      "arı": 9058,
      "suudi": 9059,
      "##ýnda": 9060,
      "##amıyorum": 9061,
      "azerbaycan": 9062,
      "halkının": 9063,
      "çeyrek": 9064,
      "tarihine": 9065,
      "yang": 9066,
      "organik": 9067,
      "kadıköy": 9068,
      "##çısı": 9069,
      "alg": 9070,
      "##ýný": 9071,
      "yıldan": 9072,
      "i̇nan": 9073,
      "izlemek": 9074,
      "cadde": 9075,
      "dk": 9076,
      "ağırlık": 9077,
      "##lamanın": 9078,
      "beton": 9079,
      "sürdü": 9080,
      "uygulamalar": 9081,
      "şof": 9082,
      "##esince": 9083,
      "başkent": 9084,
      "youtu": 9085,
      "##esir": 9086,
      "çekin": 9087,
      "yetki": 9088,
      "vicdan": 9089,
      "olmazsa": 9090,
      "bağlam": 9091,
      "bankacılık": 9092,
      "##rad": 9093,
      "ret": 9094,
      "pozitif": 9095,
      "meb": 9096,
      "girmek": 9097,
      "buton": 9098,
      "çalıştığı": 9099,
      "sistemine": 9100,
      "istemiyor": 9101,
      "anlamak": 9102,
      "edir": 9103,
      "##lemiş": 9104,
      "##layı": 9105,
      "olmasının": 9106,
      "olayları": 9107,
      "tohum": 9108,
      "herş": 9109,
      "avustur": 9110,
      "verilmiş": 9111,
      "##orit": 9112,
      "geor": 9113,
      "teşkil": 9114,
      "ulaştı": 9115,
      "amatör": 9116,
      "76": 9117,
      "medeniyet": 9118,
      "ilah": 9119,
      "##âm": 9120,
      "özgün": 9121,
      "kullanılarak": 9122,
      "düzenlenecek": 9123,
      "##ılacak": 9124,
      "mecbur": 9125,
      "etrafında": 9126,
      "hürriyet": 9127,
      "araştırmalar": 9128,
      "karşılığı": 9129,
      "talimat": 9130,
      "teklifi": 9131,
      "gerekçesiyle": 9132,
      "erdem": 9133,
      "harcama": 9134,
      "77": 9135,
      "##dular": 9136,
      "omuz": 9137,
      "müsabak": 9138,
      "##laç": 9139,
      "oynayan": 9140,
      "kitabın": 9141,
      "max": 9142,
      "virüs": 9143,
      "i̇lgili": 9144,
      "kadir": 9145,
      "##yeni": 9146,
      "amaçla": 9147,
      "##inizden": 9148,
      "mum": 9149,
      "nakliye": 9150,
      "iletişime": 9151,
      "yönetici": 9152,
      "81": 9153,
      "oğuz": 9154,
      "cümle": 9155,
      "semt": 9156,
      "##emizin": 9157,
      "kişilere": 9158,
      "kaşığı": 9159,
      "katk": 9160,
      "aktivit": 9161,
      "projeleri": 9162,
      "kep": 9163,
      "saatte": 9164,
      "çel": 9165,
      "değerleri": 9166,
      "ajansı": 9167,
      "adil": 9168,
      "boyun": 9169,
      "tuvalet": 9170,
      "şansı": 9171,
      "efendi": 9172,
      "getiriyor": 9173,
      "caf": 9174,
      "eli": 9175,
      "materyal": 9176,
      "planlama": 9177,
      "irti": 9178,
      "instagram": 9179,
      "yapılandır": 9180,
      "jack": 9181,
      "lastik": 9182,
      "##bas": 9183,
      "##luğunu": 9184,
      "kosova": 9185,
      "yazıcı": 9186,
      "i̇ndir": 9187,
      "demokrat": 9188,
      "tavan": 9189,
      "##ılığı": 9190,
      "rezervasyon": 9191,
      "kablo": 9192,
      "niteliğ": 9193,
      "istatistik": 9194,
      "yürütülen": 9195,
      "##name": 9196,
      "nihayet": 9197,
      "toptan": 9198,
      "gelmez": 9199,
      "getirir": 9200,
      "patlama": 9201,
      "cezaev": 9202,
      "ordusu": 9203,
      "terim": 9204,
      "istenen": 9205,
      "perde": 9206,
      "bulgaristan": 9207,
      "##kes": 9208,
      "hesabı": 9209,
      "emr": 9210,
      "gözler": 9211,
      "rep": 9212,
      "sıcaklık": 9213,
      "##türü": 9214,
      "yarısı": 9215,
      "eng": 9216,
      "##portaj": 9217,
      "tuta": 9218,
      "faaliyetleri": 9219,
      "##iğe": 9220,
      "miras": 9221,
      "deneme": 9222,
      "tesisat": 9223,
      "##nn": 9224,
      "karşısına": 9225,
      "##indan": 9226,
      "kardeşi": 9227,
      "##dışı": 9228,
      "savcı": 9229,
      "çalıştı": 9230,
      "##duğunda": 9231,
      "##cal": 9232,
      "tutmak": 9233,
      "çıkmak": 9234,
      "referans": 9235,
      "ekr": 9236,
      "sad": 9237,
      "olanı": 9238,
      "kitapları": 9239,
      "##cell": 9240,
      "bakter": 9241,
      "alakalı": 9242,
      "##use": 9243,
      "yavru": 9244,
      "##ğeri": 9245,
      "röportaj": 9246,
      "##lamıyor": 9247,
      "ayrım": 9248,
      "##dere": 9249,
      "kov": 9250,
      "korkut": 9251,
      "we": 9252,
      "tüf": 9253,
      "esnek": 9254,
      "##ss": 9255,
      "##unuza": 9256,
      "fın": 9257,
      "i̇lçesi": 9258,
      "cehenn": 9259,
      "bilimleri": 9260,
      "krizi": 9261,
      "buğ": 9262,
      "alem": 9263,
      "imalat": 9264,
      "böy": 9265,
      "casino": 9266,
      "randevu": 9267,
      "i̇çişleri": 9268,
      "çavuş": 9269,
      "##abilmek": 9270,
      "borc": 9271,
      "vize": 9272,
      "olimpiyat": 9273,
      "yaşamını": 9274,
      "##fez": 9275,
      "harita": 9276,
      "malzemeler": 9277,
      "senaryo": 9278,
      "ailenin": 9279,
      "görebil": 9280,
      "ibadet": 9281,
      "##şak": 9282,
      "birimi": 9283,
      "görünüş": 9284,
      "sis": 9285,
      "tuhaf": 9286,
      "##luğa": 9287,
      "dor": 9288,
      "geçmişte": 9289,
      "kemer": 9290,
      "dönemlerde": 9291,
      "merdiven": 9292,
      "yaralandı": 9293,
      "##raz": 9294,
      "##ümde": 9295,
      "mahkum": 9296,
      "##şek": 9297,
      "##irt": 9298,
      "hayatında": 9299,
      "yun": 9300,
      "general": 9301,
      "cana": 9302,
      "unu": 9303,
      "buldum": 9304,
      "eklem": 9305,
      "tavır": 9306,
      "köylü": 9307,
      "devamlı": 9308,
      "heykel": 9309,
      "kra": 9310,
      "yargılan": 9311,
      "ihtiyacım": 9312,
      "albay": 9313,
      "hikaye": 9314,
      "ismini": 9315,
      "trak": 9316,
      "ederler": 9317,
      "korkunç": 9318,
      "##lüğünü": 9319,
      "yetkilileri": 9320,
      "işten": 9321,
      "konusundaki": 9322,
      "başlık": 9323,
      "##masız": 9324,
      "yukarıdaki": 9325,
      "hastaneye": 9326,
      "bırakın": 9327,
      "göv": 9328,
      "topla": 9329,
      "görünen": 9330,
      "flor": 9331,
      "stil": 9332,
      "araçlar": 9333,
      "##önü": 9334,
      "loj": 9335,
      "imar": 9336,
      "kanada": 9337,
      "keskin": 9338,
      "müth": 9339,
      "800": 9340,
      "##işe": 9341,
      "denen": 9342,
      "disk": 9343,
      "kılav": 9344,
      "kaptan": 9345,
      "noktasında": 9346,
      "ikili": 9347,
      "##sp": 9348,
      "tebliğ": 9349,
      "çıkarmak": 9350,
      "talebi": 9351,
      "dinlen": 9352,
      "zul": 9353,
      "muğla": 9354,
      "sinan": 9355,
      "vatandaşların": 9356,
      "muhabir": 9357,
      "##li̇k": 9358,
      "##dığının": 9359,
      "up": 9360,
      "global": 9361,
      "ihlal": 9362,
      "adamları": 9363,
      "ekst": 9364,
      "tecav": 9365,
      "##yeri": 9366,
      "yazma": 9367,
      "kerim": 9368,
      "direkt": 9369,
      "odaları": 9370,
      "fah": 9371,
      "milyonlarca": 9372,
      "görüle": 9373,
      "müthiş": 9374,
      "girecek": 9375,
      "düzel": 9376,
      "##ned": 9377,
      "sendika": 9378,
      "kaplama": 9379,
      "##ben": 9380,
      "politikası": 9381,
      "muam": 9382,
      "başsav": 9383,
      "kültürü": 9384,
      "anlatı": 9385,
      "seçilen": 9386,
      "kurulum": 9387,
      "fre": 9388,
      "izni": 9389,
      "kritik": 9390,
      "##api": 9391,
      "verilmiştir": 9392,
      "sistemini": 9393,
      "şanlıurfa": 9394,
      "şirketler": 9395,
      "uf": 9396,
      "inanıyorum": 9397,
      "tüy": 9398,
      "bolu": 9399,
      "özellikler": 9400,
      "bitti": 9401,
      "ölçüm": 9402,
      "kılıçdaroğlu": 9403,
      "sırbistan": 9404,
      "##larımızda": 9405,
      "##tara": 9406,
      "##ure": 9407,
      "tc": 9408,
      "##ilirken": 9409,
      "teknolojileri": 9410,
      "açıklandı": 9411,
      "elaz": 9412,
      "sizlerin": 9413,
      "yapılmıştır": 9414,
      "çikolata": 9415,
      "hic": 9416,
      "olacağız": 9417,
      "##âlâ": 9418,
      "halil": 9419,
      "fela": 9420,
      "değişiklikler": 9421,
      "kısmında": 9422,
      "tutuklu": 9423,
      "tün": 9424,
      "serisi": 9425,
      "limit": 9426,
      "peynir": 9427,
      "geçmek": 9428,
      "##aa": 9429,
      "##gk": 9430,
      "##melerine": 9431,
      "lat": 9432,
      "uydur": 9433,
      "##unuzun": 9434,
      "santral": 9435,
      "##gut": 9436,
      "##lanmaya": 9437,
      "##luğun": 9438,
      "bastır": 9439,
      "kapital": 9440,
      "ülkeleri": 9441,
      "##yalı": 9442,
      "oluşturmak": 9443,
      "maksim": 9444,
      "koşulları": 9445,
      "dışarıda": 9446,
      "##ğinde": 9447,
      "sınıfı": 9448,
      "##ünce": 9449,
      "çalışıyoruz": 9450,
      "lerin": 9451,
      "##emli": 9452,
      "böyl": 9453,
      "sergi": 9454,
      "istey": 9455,
      "gib": 9456,
      "tecavüz": 9457,
      "çılgın": 9458,
      "işletim": 9459,
      "yapay": 9460,
      "önemlisi": 9461,
      "##ung": 9462,
      "eşsiz": 9463,
      "etmiyor": 9464,
      "di̇": 9465,
      "sahipleri": 9466,
      "felaket": 9467,
      "you": 9468,
      "kaybed": 9469,
      "parkı": 9470,
      "iklim": 9471,
      "okudu": 9472,
      "##evit": 9473,
      "göçmen": 9474,
      "reç": 9475,
      "sözlerine": 9476,
      "şahit": 9477,
      "cerrahi": 9478,
      "73": 9479,
      "balıkesir": 9480,
      "74": 9481,
      "düzenlendi": 9482,
      "yetkililer": 9483,
      "karın": 9484,
      "ithalat": 9485,
      "vuruş": 9486,
      "milletin": 9487,
      "platformu": 9488,
      "üzeri": 9489,
      "uzaklaştır": 9490,
      "yapılabilir": 9491,
      "##dığımı": 9492,
      "personeli": 9493,
      "koya": 9494,
      "##iminde": 9495,
      "tamamladı": 9496,
      "söyledim": 9497,
      "denize": 9498,
      "sic": 9499,
      "verdik": 9500,
      "yürüm": 9501,
      "şüpheli": 9502,
      "kazı": 9503,
      "selim": 9504,
      "bakıyor": 9505,
      "milletler": 9506,
      "riski": 9507,
      "##egen": 9508,
      "aşamasında": 9509,
      "##abiliyor": 9510,
      "gülüm": 9511,
      "başa": 9512,
      "ayşe": 9513,
      "çalışıyorum": 9514,
      "oturum": 9515,
      "izleyen": 9516,
      "müziği": 9517,
      "yapa": 9518,
      "salih": 9519,
      "led": 9520,
      "öztürk": 9521,
      "giderken": 9522,
      "##ja": 9523,
      "karışık": 9524,
      "yıllarında": 9525,
      "girip": 9526,
      "tarihte": 9527,
      "alınmış": 9528,
      "satır": 9529,
      "elini": 9530,
      "eman": 9531,
      "i̇sviç": 9532,
[...]
